unsigned char model_tflite[] = {
    0x1c, 0x00, 0x00, 0x00, 0x54, 0x46, 0x4c, 0x33, 0x14, 0x00, 0x20, 0x00,
    0x1c, 0x00, 0x18, 0x00, 0x14, 0x00, 0x10, 0x00, 0x0c, 0x00, 0x00, 0x00,
    0x08, 0x00, 0x04, 0x00, 0x14, 0x00, 0x00, 0x00, 0x1c, 0x00, 0x00, 0x00,
    0x1c, 0x00, 0x00, 0x00, 0x74, 0x00, 0x00, 0x00, 0xcc, 0x15, 0x00, 0x00,
    0xdc, 0x15, 0x00, 0x00, 0x20, 0x26, 0x00, 0x00, 0x03, 0x00, 0x00, 0x00,
    0x00, 0x00, 0x00, 0x00, 0x02, 0x00, 0x00, 0x00, 0x34, 0x00, 0x00, 0x00,
    0x04, 0x00, 0x00, 0x00, 0xdc, 0xff, 0xff, 0xff, 0x18, 0x00, 0x00, 0x00,
    0x04, 0x00, 0x00, 0x00, 0x13, 0x00, 0x00, 0x00, 0x43, 0x4f, 0x4e, 0x56,
    0x45, 0x52, 0x53, 0x49, 0x4f, 0x4e, 0x5f, 0x4d, 0x45, 0x54, 0x41, 0x44,
    0x41, 0x54, 0x41, 0x00, 0x08, 0x00, 0x0c, 0x00, 0x08, 0x00, 0x04, 0x00,
    0x08, 0x00, 0x00, 0x00, 0x17, 0x00, 0x00, 0x00, 0x04, 0x00, 0x00, 0x00,
    0x13, 0x00, 0x00, 0x00, 0x6d, 0x69, 0x6e, 0x5f, 0x72, 0x75, 0x6e, 0x74,
    0x69, 0x6d, 0x65, 0x5f, 0x76, 0x65, 0x72, 0x73, 0x69, 0x6f, 0x6e, 0x00,
    0x19, 0x00, 0x00, 0x00, 0x54, 0x15, 0x00, 0x00, 0x4c, 0x15, 0x00, 0x00,
    0x34, 0x15, 0x00, 0x00, 0x24, 0x03, 0x00, 0x00, 0x04, 0x03, 0x00, 0x00,
    0xb4, 0x02, 0x00, 0x00, 0x64, 0x02, 0x00, 0x00, 0xd4, 0x01, 0x00, 0x00,
    0xa4, 0x01, 0x00, 0x00, 0x4c, 0x01, 0x00, 0x00, 0x1c, 0x01, 0x00, 0x00,
    0x04, 0x01, 0x00, 0x00, 0xf0, 0x00, 0x00, 0x00, 0xd4, 0x00, 0x00, 0x00,
    0xcc, 0x00, 0x00, 0x00, 0xc4, 0x00, 0x00, 0x00, 0xbc, 0x00, 0x00, 0x00,
    0xb4, 0x00, 0x00, 0x00, 0xac, 0x00, 0x00, 0x00, 0xa4, 0x00, 0x00, 0x00,
    0x9c, 0x00, 0x00, 0x00, 0x94, 0x00, 0x00, 0x00, 0x8c, 0x00, 0x00, 0x00,
    0x6c, 0x00, 0x00, 0x00, 0x04, 0x00, 0x00, 0x00, 0x7a, 0xea, 0xff, 0xff,
    0x04, 0x00, 0x00, 0x00, 0x58, 0x00, 0x00, 0x00, 0x0c, 0x00, 0x00, 0x00,
    0x08, 0x00, 0x0e, 0x00, 0x08, 0x00, 0x04, 0x00, 0x08, 0x00, 0x00, 0x00,
    0x10, 0x00, 0x00, 0x00, 0x28, 0x00, 0x00, 0x00, 0x00, 0x00, 0x06, 0x00,
    0x08, 0x00, 0x04, 0x00, 0x06, 0x00, 0x00, 0x00, 0x04, 0x00, 0x00, 0x00,
    0x01, 0x00, 0x00, 0x00, 0xeb, 0x03, 0x00, 0x00, 0x00, 0x00, 0x0a, 0x00,
    0x10, 0x00, 0x0c, 0x00, 0x08, 0x00, 0x04, 0x00, 0x0a, 0x00, 0x00, 0x00,
    0x02, 0x00, 0x00, 0x00, 0x02, 0x00, 0x00, 0x00, 0x04, 0x00, 0x00, 0x00,
    0x06, 0x00, 0x00, 0x00, 0x32, 0x2e, 0x31, 0x35, 0x2e, 0x30, 0x00, 0x00,
    0xde, 0xea, 0xff, 0xff, 0x04, 0x00, 0x00, 0x00, 0x10, 0x00, 0x00, 0x00,
    0x31, 0x2e, 0x31, 0x34, 0x2e, 0x30, 0x00, 0x00, 0x00, 0x00, 0x00, 0x00,
    0x00, 0x00, 0x00, 0x00, 0xc4, 0xea, 0xff, 0xff, 0xc8, 0xea, 0xff, 0xff,
    0xcc, 0xea, 0xff, 0xff, 0xd0, 0xea, 0xff, 0xff, 0xd4, 0xea, 0xff, 0xff,
    0xd8, 0xea, 0xff, 0xff, 0xdc, 0xea, 0xff, 0xff, 0xe0, 0xea, 0xff, 0xff,
    0xe4, 0xea, 0xff, 0xff, 0x1e, 0xeb, 0xff, 0xff, 0x04, 0x00, 0x00, 0x00,
    0x09, 0x00, 0x00, 0x00, 0x52, 0x77, 0x26, 0x64, 0x7e, 0x0b, 0x7c, 0x7f,
    0x0e, 0x00, 0x00, 0x00, 0x36, 0xeb, 0xff, 0xff, 0x04, 0x00, 0x00, 0x00,
    0x04, 0x00, 0x00, 0x00, 0x88, 0xe7, 0xff, 0xff, 0x46, 0xeb, 0xff, 0xff,
    0x04, 0x00, 0x00, 0x00, 0x08, 0x00, 0x00, 0x00, 0x7f, 0x7f, 0x81, 0x81,
    0x7f, 0x81, 0x7f, 0x81, 0x5a, 0xeb, 0xff, 0xff, 0x04, 0x00, 0x00, 0x00,
    0x20, 0x00, 0x00, 0x00, 0x91, 0xfc, 0xff, 0xff, 0x72, 0xf9, 0xff, 0xff,
    0x00, 0x00, 0x00, 0x00, 0x00, 0x00, 0x00, 0x00, 0xeb, 0xfa, 0xff, 0xff,
    0x00, 0x00, 0x00, 0x00, 0xa2, 0x00, 0x00, 0x00, 0x00, 0x00, 0x00, 0x00,
    0x86, 0xeb, 0xff, 0xff, 0x04, 0x00, 0x00, 0x00, 0x48, 0x00, 0x00, 0x00,
    0x67, 0x8a, 0x0e, 0xfd, 0x98, 0xf3, 0xdf, 0xe3, 0x79, 0xfb, 0x68, 0xe1,
    0x69, 0xab, 0xdd, 0x26, 0xa8, 0x81, 0x5f, 0x00, 0xca, 0x9b, 0x81, 0xb5,
    0x1b, 0x08, 0x81, 0x5d, 0x09, 0xdd, 0xc9, 0x7f, 0x1c, 0x63, 0x69, 0x8c,
    0x7f, 0x00, 0x81, 0x22, 0xc9, 0xba, 0x7d, 0x73, 0xa2, 0x76, 0x88, 0x55,
    0x38, 0x45, 0x21, 0xd6, 0x1c, 0x61, 0xef, 0x87, 0xd6, 0x48, 0xe2, 0x81,
    0x32, 0xa6, 0xdb, 0x0c, 0x81, 0x3b, 0x04, 0xa6, 0xc5, 0x7f, 0x0a, 0xa6,
    0xda, 0xeb, 0xff, 0xff, 0x04, 0x00, 0x00, 0x00, 0x20, 0x00, 0x00, 0x00,
    0xae, 0xfe, 0xff, 0xff, 0x05, 0x01, 0x00, 0x00, 0x00, 0x00, 0x00, 0x00,
    0x00, 0x00, 0x00, 0x00, 0x06, 0x02, 0x00, 0x00, 0x00, 0x00, 0x00, 0x00,
    0xb9, 0xfd, 0xff, 0xff, 0x00, 0x00, 0x00, 0x00, 0x06, 0xec, 0xff, 0xff,
    0x04, 0x00, 0x00, 0x00, 0x80, 0x00, 0x00, 0x00, 0x7f, 0x4c, 0x25, 0xf7,
    0x10, 0x10, 0x2d, 0x1c, 0xa4, 0xef, 0xb6, 0xca, 0x10, 0x5a, 0x81, 0xcc,
    0xd9, 0x81, 0xad, 0x12, 0xfa, 0x29, 0x29, 0x0e, 0x9f, 0x03, 0x89, 0x98,
    0x7f, 0xd9, 0x7b, 0x96, 0x7f, 0x52, 0x05, 0x11, 0xf8, 0xc6, 0x49, 0x33,
    0x7f, 0xef, 0x10, 0x00, 0xee, 0x24, 0x4a, 0xc8, 0x21, 0x7d, 0xfe, 0x1f,
    0x7f, 0xc5, 0xb4, 0x3a, 0xee, 0x81, 0x45, 0x4c, 0x97, 0x5e, 0x40, 0x46,
    0xb1, 0x7f, 0x43, 0xe7, 0xd1, 0xe6, 0xe4, 0xcb, 0xa6, 0x7f, 0x4e, 0xf8,
    0x19, 0xe2, 0x57, 0x6a, 0x81, 0xa9, 0x4d, 0x35, 0xcc, 0xd6, 0x24, 0x0c,
    0x05, 0x6d, 0x04, 0x81, 0x1a, 0xbd, 0xfb, 0x06, 0x1d, 0x2e, 0x2f, 0x81,
    0xae, 0x6c, 0x63, 0x25, 0x31, 0x64, 0x01, 0x2a, 0x7f, 0x2e, 0x08, 0xc5,
    0x7f, 0x2f, 0x10, 0xc4, 0x70, 0x38, 0x32, 0x36, 0x27, 0xcc, 0x38, 0xcb,
    0x7f, 0x23, 0x3d, 0x1f, 0x92, 0xec, 0xff, 0xff, 0x04, 0x00, 0x00, 0x00,
    0x40, 0x00, 0x00, 0x00, 0xaa, 0xff, 0xff, 0xff, 0xb0, 0xfb, 0xff, 0xff,
    0x00, 0x00, 0x00, 0x00, 0x8c, 0xef, 0xff, 0xff, 0xd9, 0xff, 0xff, 0xff,
    0xbf, 0xff, 0xff, 0xff, 0xaf, 0xff, 0xff, 0xff, 0x00, 0x00, 0x00, 0x00,
    0x50, 0x00, 0x00, 0x00, 0x41, 0xfd, 0xff, 0xff, 0x00, 0x00, 0x00, 0x00,
    0x56, 0xe7, 0xff, 0xff, 0x33, 0xf6, 0xff, 0xff, 0x3e, 0x00, 0x00, 0x00,
    0x31, 0xff, 0xff, 0xff, 0x13, 0xff, 0xff, 0xff, 0xde, 0xec, 0xff, 0xff,
    0x04, 0x00, 0x00, 0x00, 0x40, 0x00, 0x00, 0x00, 0x18, 0xed, 0x4f, 0x8e,
    0x6f, 0x06, 0x34, 0x3e, 0x1a, 0xde, 0x4f, 0xe9, 0x21, 0xca, 0x3e, 0x7f,
    0x44, 0xb7, 0x3b, 0xd3, 0x31, 0x01, 0x7f, 0x47, 0x57, 0xe1, 0x42, 0xf9,
    0xc0, 0x64, 0x55, 0x20, 0x7a, 0x21, 0xff, 0x3b, 0x7f, 0x51, 0x08, 0x46,
    0xce, 0x9c, 0xd3, 0x9f, 0xe8, 0x14, 0x48, 0x74, 0x61, 0xb1, 0x5a, 0xbc,
    0x47, 0xa4, 0x7f, 0xed, 0x45, 0x48, 0x06, 0xae, 0x10, 0x54, 0xec, 0x11,
    0x2a, 0xed, 0xff, 0xff, 0x04, 0x00, 0x00, 0x00, 0x10, 0x00, 0x00, 0x00,
    0xf8, 0xff, 0xff, 0xff, 0xa5, 0xff, 0xff, 0xff, 0x44, 0xff, 0xff, 0xff,
    0xb4, 0xff, 0xff, 0xff, 0x46, 0xed, 0xff, 0xff, 0x04, 0x00, 0x00, 0x00,
    0x00, 0x12, 0x00, 0x00, 0x19, 0xff, 0x03, 0x02, 0xfa, 0x03, 0x25, 0x13,
    0xf9, 0x00, 0xfd, 0x08, 0x1e, 0xf7, 0x03, 0x06, 0x0e, 0xf0, 0x16, 0xfc,
    0x10, 0x0b, 0x12, 0x06, 0x07, 0xea, 0x06, 0xf6, 0x08, 0xdc, 0x0c, 0xdd,
    0x07, 0xd1, 0xec, 0xd5, 0xfb, 0x03, 0xf6, 0x02, 0x00, 0xe5, 0x17, 0xf7,
    0xe7, 0x03, 0x11, 0x0e, 0x0b, 0x13, 0x16, 0x1e, 0xf7, 0x03, 0x22, 0x25,
    0x15, 0x10, 0x1b, 0x0b, 0xf0, 0xdf, 0x01, 0xe2, 0xc7, 0xf4, 0xfd, 0xd6,
    0xe5, 0xf7, 0xdc, 0xf0, 0x00, 0xc9, 0xe2, 0xc3, 0xf1, 0xe8, 0xe6, 0xf2,
    0xde, 0x06, 0xec, 0xd5, 0x02, 0xef, 0xf1, 0xd2, 0x13, 0xd4, 0xef, 0xd0,
    0xf9, 0xe0, 0xed, 0xf5, 0xd0, 0xf7, 0xc2, 0xfd, 0x08, 0x08, 0x0f, 0x05,
    0xd0, 0xac, 0xa0, 0xa8, 0xc0, 0xd3, 0xa0, 0xc3, 0xe6, 0xd7, 0xc9, 0xc7,
    0xf7, 0xcb, 0xed, 0xc5, 0xe3, 0xdf, 0xf1, 0xc7, 0x02, 0x13, 0x2b, 0x2b,
    0xe0, 0xe3, 0xec, 0xd0, 0xd5, 0xbc, 0x97, 0xee, 0xe0, 0xed, 0xbd, 0xe9,
    0xe4, 0xd2, 0xde, 0xcf, 0xf3, 0xc6, 0xd9, 0xa8, 0xf4, 0xea, 0x33, 0xe5,
    0x26, 0x2e, 0x69, 0x24, 0x02, 0xed, 0x1a, 0xe6, 0x28, 0x0b, 0x5a, 0xfe,
    0x31, 0x34, 0x5d, 0x2c, 0x15, 0x1e, 0x19, 0x25, 0x18, 0x29, 0x51, 0x1e,
    0x01, 0x2f, 0x52, 0x21, 0x09, 0x19, 0x02, 0x2d, 0x01, 0x1c, 0xfe, 0x04,
    0x1f, 0xdb, 0xd3, 0xe2, 0xf8, 0xf2, 0xeb, 0xe8, 0xf9, 0xf2, 0x01, 0xf0,
    0x02, 0xc6, 0xfd, 0xb5, 0xfd, 0xe0, 0xf4, 0xbf, 0xfd, 0xdb, 0xff, 0xd0,
    0xf0, 0x02, 0x12, 0xe4, 0xf4, 0x05, 0x14, 0xf3, 0x2b, 0x48, 0x46, 0x4d,
    0xf7, 0x13, 0x02, 0x0f, 0x01, 0xe6, 0xb3, 0xee, 0x01, 0x03, 0xeb, 0xfc,
    0x12, 0xf0, 0xe1, 0xe4, 0xf6, 0xd6, 0xd5, 0xdb, 0xe8, 0xec, 0xe4, 0xdf,
    0xe6, 0x0e, 0x12, 0x25, 0xfc, 0x42, 0x3b, 0x41, 0xdb, 0x20, 0x13, 0x33,
    0xfe, 0x2d, 0x17, 0x3c, 0x13, 0x29, 0x08, 0x44, 0x0f, 0x38, 0x2a, 0x67,
    0xf2, 0xfc, 0xef, 0xf9, 0xcd, 0xb8, 0xc2, 0xc1, 0x03, 0xf1, 0xf9, 0xfe,
    0xf9, 0xe3, 0xde, 0xd4, 0xce, 0xf1, 0xd0, 0x07, 0x11, 0x11, 0xeb, 0x07,
    0xe0, 0xf0, 0xde, 0xd4, 0xea, 0xdf, 0xb7, 0xe7, 0xd3, 0xdb, 0xe3, 0xdf,
    0xeb, 0xfd, 0xf7, 0xf4, 0xe2, 0x0f, 0x13, 0x19, 0x0b, 0x28, 0x1b, 0x2a,
    0xe9, 0x2d, 0x15, 0x30, 0x10, 0x21, 0x04, 0x23, 0x17, 0xf3, 0x09, 0x06,
    0xf4, 0xe7, 0xfb, 0xf3, 0xe0, 0xf3, 0xd1, 0xf9, 0xe7, 0xe9, 0xb9, 0xec,
    0xc5, 0xe6, 0xea, 0xfa, 0x02, 0x2d, 0x23, 0x35, 0x11, 0x1b, 0x3a, 0x3c,
    0x00, 0x1e, 0x20, 0x1b, 0xf5, 0x13, 0x05, 0x18, 0xeb, 0xdb, 0xf5, 0xce,
    0x06, 0x12, 0x27, 0xfe, 0xd3, 0xc0, 0x81, 0xbe, 0xff, 0x0a, 0xd2, 0x04,
    0x17, 0x08, 0xd4, 0xf7, 0xe0, 0x0e, 0xdf, 0xf2, 0x14, 0xf5, 0xf0, 0xf8,
    0xf9, 0xf9, 0xf7, 0xcf, 0xfe, 0xe0, 0xe8, 0xc3, 0xd3, 0xda, 0xc9, 0xcc,
    0xed, 0xf1, 0xeb, 0x01, 0xea, 0x09, 0x04, 0x0c, 0xe6, 0x27, 0xf7, 0x1e,
    0x07, 0x3a, 0x48, 0x32, 0x1e, 0x3e, 0x2d, 0x3f, 0xf4, 0xf8, 0x08, 0x14,
    0x0e, 0xfa, 0x08, 0x03, 0xeb, 0x01, 0xfb, 0xef, 0xfc, 0xd6, 0xf8, 0xde,
    0xcc, 0xfd, 0xec, 0xec, 0xe1, 0x17, 0x13, 0x21, 0x06, 0x24, 0x31, 0x33,
    0xfd, 0xee, 0x03, 0xe7, 0xf5, 0xe7, 0xf1, 0xe1, 0xd7, 0xe4, 0xa9, 0xd3,
    0xee, 0xee, 0x12, 0x05, 0xc5, 0xb4, 0x98, 0xbe, 0xe8, 0xd8, 0xcd, 0xe1,
    0x0a, 0xf0, 0x01, 0x1b, 0xee, 0x12, 0xc8, 0xf0, 0x07, 0xe3, 0xf6, 0xeb,
    0x18, 0xeb, 0x12, 0xfa, 0xf8, 0xcd, 0xc8, 0xd5, 0xf9, 0xf3, 0xe3, 0xef,
    0xfd, 0x11, 0x18, 0xfe, 0xf9, 0x00, 0xf0, 0x14, 0xe6, 0xfa, 0xd8, 0x05,
    0xf7, 0xf5, 0x11, 0xe6, 0x01, 0xf0, 0xf3, 0xe3, 0x05, 0xde, 0xf9, 0xc4,
    0x02, 0xfa, 0x02, 0xf5, 0x18, 0xee, 0xff, 0xde, 0xf7, 0xee, 0xe8, 0xf2,
    0xf7, 0xfc, 0xff, 0x05, 0x14, 0x3e, 0x35, 0x4a, 0x19, 0x1a, 0x13, 0x2b,
    0x0d, 0x24, 0x0d, 0x1b, 0x03, 0xf6, 0xf3, 0x14, 0xf2, 0x1f, 0xdc, 0x04,
    0xc7, 0xf8, 0xd8, 0x04, 0xf5, 0xe6, 0xee, 0x06, 0x0e, 0xf9, 0xfe, 0x01,
    0xe7, 0x28, 0x0a, 0x0f, 0xde, 0xf6, 0xab, 0xe8, 0x01, 0xfd, 0xda, 0xda,
    0x18, 0x1c, 0x07, 0x05, 0x19, 0x1a, 0x13, 0x0c, 0xfd, 0x0a, 0x13, 0xee,
    0x24, 0x29, 0x30, 0x03, 0x05, 0xea, 0x18, 0xfe, 0x02, 0x01, 0x0c, 0x15,
    0xf4, 0x0a, 0x2d, 0x0f, 0xec, 0xdb, 0xea, 0xe8, 0xf2, 0xef, 0xe6, 0xf6,
    0xfd, 0xff, 0x00, 0xf9, 0x29, 0x00, 0x03, 0x07, 0xf5, 0xed, 0xf8, 0xeb,
    0xf2, 0x19, 0x15, 0x1a, 0x22, 0x48, 0x4f, 0x21, 0x06, 0xf7, 0xf9, 0xf3,
    0x1a, 0x04, 0x2a, 0xf9, 0x06, 0xfc, 0x0d, 0xf3, 0xf5, 0xf4, 0x32, 0xe9,
    0xda, 0xe4, 0x30, 0xe1, 0x0f, 0xef, 0x23, 0xfa, 0x1c, 0x05, 0x3c, 0x11,
    0xfc, 0x29, 0x17, 0x33, 0xec, 0xea, 0xca, 0xd6, 0xe7, 0xe1, 0xc1, 0xb2,
    0x2b, 0x09, 0x13, 0xf7, 0x04, 0xfa, 0xf9, 0x09, 0xf1, 0xf9, 0xe2, 0xf9,
    0xf9, 0x14, 0xf7, 0x23, 0x1b, 0x2c, 0x0a, 0x20, 0x1b, 0x3a, 0x35, 0x3d,
    0x11, 0x44, 0x45, 0x2f, 0x14, 0x01, 0x02, 0xfe, 0xd3, 0xec, 0x0e, 0xff,
    0xea, 0x0a, 0xf1, 0x0b, 0xff, 0xfe, 0x05, 0xff, 0xee, 0xec, 0x0f, 0xe3,
    0x0d, 0xfe, 0x37, 0x0b, 0x00, 0x1d, 0x49, 0xfc, 0xe9, 0xbd, 0xe5, 0x98,
    0xf3, 0xd2, 0xf8, 0xd3, 0x0a, 0x03, 0x14, 0xf4, 0x15, 0xf2, 0x2e, 0xe2,
    0x00, 0x00, 0x39, 0xef, 0x1c, 0xd4, 0x28, 0xf1, 0x35, 0x24, 0x36, 0x0a,
    0xec, 0x0d, 0x15, 0x27, 0x0f, 0x08, 0xd0, 0x00, 0x14, 0xdb, 0xdb, 0xde,
    0xf9, 0xde, 0xde, 0xc7, 0x03, 0xe6, 0x03, 0xf2, 0x0c, 0x09, 0x19, 0x03,
    0xdb, 0xec, 0x05, 0xe3, 0xfa, 0x01, 0x29, 0x0a, 0xfb, 0x26, 0x1b, 0x24,
    0x08, 0x2a, 0x4c, 0x1d, 0xfa, 0xdd, 0x1c, 0xf5, 0xf9, 0x00, 0x1d, 0xf4,
    0xed, 0xdb, 0xfa, 0xd0, 0xfc, 0xee, 0x10, 0xe4, 0x10, 0xf5, 0x3a, 0xfb,
    0x0f, 0x21, 0x6c, 0x1c, 0xf6, 0x1b, 0x40, 0x06, 0xf1, 0xe8, 0x1f, 0xfe,
    0x10, 0xe5, 0x28, 0xeb, 0x3a, 0xf8, 0x5d, 0xe9, 0x3e, 0x1e, 0x56, 0xef,
    0x25, 0x32, 0x5d, 0x1e, 0x0e, 0x10, 0x26, 0xff, 0x06, 0xf5, 0xfb, 0xf1,
    0xc6, 0x0f, 0x02, 0x0f, 0xe8, 0x05, 0xee, 0x17, 0xf0, 0xdd, 0xdf, 0xde,
    0xdf, 0xb7, 0xda, 0xb5, 0x18, 0xe8, 0xf7, 0xd3, 0x01, 0xef, 0x16, 0xe1,
    0xe6, 0xbe, 0xf7, 0xc3, 0xfc, 0xe5, 0x06, 0xe4, 0x1c, 0x1c, 0x38, 0x1a,
    0x1d, 0x1d, 0x5b, 0x20, 0xfe, 0x0d, 0x1d, 0xf4, 0x02, 0xf0, 0x12, 0xea,
    0x20, 0x07, 0x10, 0xf7, 0x15, 0x13, 0x2a, 0xf7, 0x1f, 0x02, 0x55, 0xf4,
    0x2f, 0x2c, 0x6c, 0x1f, 0xf8, 0x22, 0x1d, 0x1d, 0x0d, 0x25, 0x1f, 0x1f,
    0x19, 0x12, 0x15, 0xfb, 0x1b, 0x0f, 0x16, 0x0e, 0xf9, 0xf8, 0xfc, 0xf7,
    0xec, 0x11, 0x1e, 0x03, 0xf1, 0xee, 0xd3, 0xd3, 0xeb, 0xd7, 0xce, 0xbc,
    0xcf, 0x14, 0xf2, 0xfc, 0x19, 0x11, 0xf9, 0x05, 0x14, 0xc6, 0xde, 0xb4,
    0xf7, 0xee, 0xd7, 0xc6, 0x20, 0xf6, 0xfc, 0xea, 0x12, 0xf4, 0x13, 0xe3,
    0x06, 0xeb, 0x11, 0xe5, 0x0b, 0xe2, 0xe5, 0xef, 0x14, 0x17, 0x25, 0x27,
    0x17, 0x28, 0x58, 0x19, 0xff, 0x04, 0x1b, 0x0c, 0x04, 0x14, 0x2b, 0x00,
    0x1a, 0x0c, 0x20, 0xf8, 0x12, 0xf2, 0x0e, 0x01, 0xf1, 0xdd, 0x20, 0xde,
    0xff, 0x2a, 0x35, 0x27, 0xda, 0x12, 0xfb, 0x25, 0xfc, 0x14, 0x11, 0x11,
    0x13, 0x00, 0xe8, 0x07, 0xfc, 0xf2, 0xf1, 0x13, 0xf4, 0xd8, 0xdb, 0xfc,
    0xf7, 0x05, 0x25, 0x1a, 0xe0, 0xd4, 0xe3, 0xf6, 0xee, 0xf3, 0xd0, 0xdd,
    0xd5, 0xf5, 0x0b, 0xf7, 0x20, 0xf9, 0xe3, 0xe9, 0x1a, 0xdd, 0x0a, 0xa4,
    0x1c, 0xcd, 0xeb, 0xba, 0x02, 0xe4, 0xf6, 0xc8, 0x1f, 0xf6, 0x0d, 0xcd,
    0x0f, 0xf9, 0x0f, 0x01, 0x23, 0xf7, 0x0e, 0xf9, 0x0a, 0x04, 0xf9, 0x02,
    0x0f, 0x39, 0x4b, 0x2e, 0xdc, 0xf0, 0x18, 0x08, 0x23, 0x15, 0x3c, 0x18,
    0x08, 0xff, 0x02, 0xf2, 0xf3, 0xe4, 0xfa, 0xf9, 0x00, 0xf8, 0x14, 0x0b,
    0x23, 0x14, 0x20, 0x32, 0xfa, 0x07, 0x1b, 0x0c, 0x20, 0xfb, 0xff, 0xef,
    0x26, 0x08, 0xe3, 0x08, 0xf9, 0x17, 0x0a, 0x12, 0xea, 0xd9, 0xe3, 0xe2,
    0x0f, 0x16, 0x3b, 0xf7, 0xd5, 0xc5, 0xe0, 0xa9, 0xea, 0xd3, 0xd0, 0xdc,
    0xed, 0x18, 0x09, 0x20, 0x2d, 0x18, 0x17, 0x1c, 0x03, 0xd8, 0xf1, 0xd0,
    0x0b, 0xfd, 0xf4, 0xe6, 0xfc, 0xe7, 0xec, 0xdd, 0xf4, 0xf9, 0xed, 0xfc,
    0x0c, 0x0b, 0x18, 0x18, 0xfb, 0x0c, 0x08, 0xf7, 0xf4, 0xff, 0xda, 0xe8,
    0x09, 0x17, 0x43, 0x1c, 0xe9, 0xea, 0x00, 0x15, 0x27, 0x3d, 0x66, 0x2d,
    0x23, 0x08, 0x2e, 0x25, 0x1e, 0xff, 0x12, 0x1d, 0xff, 0xfe, 0x0a, 0x15,
    0x26, 0x39, 0x42, 0x3b, 0x0f, 0x15, 0x33, 0x2a, 0xf9, 0xd7, 0xf5, 0xb5,
    0x1c, 0xe8, 0xed, 0xed, 0x08, 0xf0, 0x22, 0xfc, 0x0a, 0xe9, 0x0d, 0xf0,
    0x2a, 0x36, 0x32, 0x15, 0x07, 0xe8, 0xf4, 0xf7, 0xf1, 0xd0, 0xb9, 0xd6,
    0xf6, 0x13, 0x22, 0x20, 0x13, 0x07, 0xed, 0x06, 0xf1, 0xe0, 0xfe, 0xf6,
    0xf0, 0xf3, 0xf2, 0xfd, 0xf4, 0x07, 0x04, 0xf1, 0xeb, 0x1c, 0x1e, 0x1d,
    0xf0, 0xdf, 0x0a, 0xe2, 0xda, 0xdb, 0xee, 0xda, 0xf6, 0xfd, 0xe4, 0xf5,
    0xf5, 0x09, 0x23, 0x0b, 0xe7, 0xec, 0x05, 0xf0, 0x17, 0x0c, 0x43, 0xfe,
    0x11, 0x08, 0x0b, 0x13, 0x05, 0x05, 0x1f, 0x18, 0x01, 0xe5, 0x00, 0xe6,
    0x26, 0x29, 0x49, 0x20, 0x0a, 0x1e, 0x30, 0x13, 0x0f, 0x04, 0x06, 0xf5,
    0x04, 0x04, 0xed, 0xf4, 0xea, 0xf1, 0x08, 0xea, 0xde, 0xe6, 0xe6, 0xd4,
    0xf0, 0x12, 0x1c, 0x0e, 0x0f, 0xef, 0x0a, 0xf4, 0x07, 0x1c, 0x3d, 0x15,
    0xf5, 0xfc, 0x10, 0x02, 0x00, 0xfb, 0x2c, 0xeb, 0x01, 0xe4, 0x10, 0xd3,
    0xf0, 0xcc, 0x00, 0xb5, 0xd8, 0xc3, 0xf7, 0xbc, 0xef, 0xf2, 0x0e, 0xd4,
    0x04, 0xe1, 0x04, 0xc3, 0xe6, 0xd5, 0xf2, 0xae, 0x14, 0xff, 0x1a, 0xd6,
    0x1e, 0x0c, 0x38, 0x02, 0x0c, 0x04, 0x15, 0xe4, 0x15, 0x08, 0x26, 0xfa,
    0xef, 0xe7, 0x01, 0xe1, 0x19, 0xfc, 0x2a, 0x03, 0x03, 0xf4, 0x1c, 0x07,
    0x02, 0x0b, 0x00, 0x1b, 0xf2, 0x07, 0x22, 0x0f, 0x3d, 0x09, 0x42, 0x2c,
    0x0f, 0xf5, 0xe1, 0xfd, 0x0b, 0x02, 0x30, 0x02, 0x0c, 0x09, 0x3d, 0x18,
    0x17, 0x2e, 0x5d, 0x3c, 0x14, 0x0c, 0x50, 0x20, 0x2b, 0x41, 0x6f, 0x43,
    0xfb, 0xe8, 0xf7, 0xea, 0xe9, 0xdc, 0xde, 0xd9, 0x0a, 0x13, 0x2b, 0xf2,
    0xe9, 0xef, 0xea, 0xce, 0xf3, 0xf2, 0x02, 0xd2, 0x0f, 0xe5, 0x27, 0xf7,
    0x17, 0xf5, 0x00, 0xea, 0x0d, 0x14, 0x12, 0xff, 0xfe, 0x06, 0x13, 0x11,
    0x02, 0x1d, 0x2c, 0x0f, 0x0e, 0xfe, 0x19, 0xf9, 0x1f, 0x32, 0x44, 0x38,
    0x1c, 0x11, 0x1c, 0xf1, 0xff, 0xfa, 0x28, 0xf3, 0xe0, 0x12, 0x07, 0xf1,
    0xd5, 0xef, 0xe7, 0x07, 0x04, 0x03, 0x1b, 0x02, 0x19, 0xf2, 0x36, 0x06,
    0x03, 0xe3, 0xd3, 0xe9, 0x0d, 0x19, 0x2c, 0x18, 0x21, 0x34, 0x46, 0x27,
    0x20, 0x38, 0x6d, 0x48, 0xec, 0x16, 0x45, 0x1a, 0x1e, 0x21, 0x3d, 0x48,
    0x16, 0xef, 0xee, 0x16, 0xfe, 0xe4, 0x17, 0xd3, 0xdd, 0x00, 0x18, 0xf6,
    0xf4, 0xf0, 0xf4, 0x06, 0x0a, 0x0c, 0x1c, 0x24, 0xe8, 0x02, 0xfd, 0xef,
    0x1a, 0x2a, 0x16, 0x26, 0x03, 0xef, 0xdb, 0xf6, 0xf6, 0xfd, 0xdc, 0x00,
    0xe8, 0xf8, 0xe5, 0xed, 0xfa, 0xe6, 0xee, 0x02, 0x17, 0x05, 0x1d, 0x13,
    0x16, 0xe2, 0xfc, 0xe4, 0xeb, 0xe1, 0xf3, 0xd2, 0x0b, 0x23, 0x36, 0x25,
    0x1e, 0x1d, 0x2d, 0x1f, 0x23, 0x02, 0x2b, 0x19, 0x32, 0x1b, 0x51, 0x0a,
    0x3a, 0xe1, 0x16, 0xd7, 0x32, 0x24, 0x46, 0x10, 0xec, 0x05, 0x21, 0xf7,
    0xef, 0x2b, 0x3a, 0x01, 0xe0, 0xdf, 0x24, 0xcd, 0xe3, 0xd0, 0xd8, 0xa6,
    0x2f, 0xf9, 0x0a, 0xfc, 0xf6, 0xe3, 0xfd, 0xc5, 0xfa, 0xe6, 0x0c, 0xf4,
    0xfd, 0x1b, 0xdb, 0x08, 0x02, 0x26, 0xf1, 0x27, 0xe1, 0x12, 0xc1, 0x06,
    0x06, 0x14, 0xd9, 0x2e, 0xe2, 0xe9, 0xa6, 0xec, 0xf9, 0xff, 0xeb, 0x09,
    0x08, 0xe8, 0xf2, 0xd1, 0xfc, 0xf3, 0xf8, 0xef, 0xfd, 0xe6, 0xf2, 0xf3,
    0xdd, 0xe1, 0xd8, 0xdb, 0x07, 0x07, 0xec, 0xf9, 0x07, 0x09, 0x02, 0x02,
    0x01, 0xde, 0xde, 0x0f, 0xe9, 0xf0, 0xef, 0x08, 0x1d, 0x24, 0x37, 0x35,
    0x05, 0xc3, 0x02, 0xc9, 0x08, 0x11, 0x16, 0xf3, 0xe7, 0xe5, 0xf1, 0xe8,
    0x0c, 0x45, 0x2d, 0x37, 0xfe, 0xf9, 0x34, 0x06, 0xd0, 0xb4, 0xaf, 0xb2,
    0x05, 0xd0, 0xe3, 0xdc, 0xe4, 0xda, 0xdc, 0xd2, 0x00, 0xe2, 0xdb, 0xdf,
    0x08, 0x06, 0xf6, 0x07, 0xed, 0x08, 0xbe, 0x05, 0xf4, 0x0c, 0xb7, 0xfb,
    0xe7, 0xe9, 0xc4, 0xca, 0xf5, 0xd0, 0xc7, 0xe4, 0xf4, 0xcb, 0xe2, 0xc3,
    0x10, 0xdb, 0xfe, 0xee, 0xe0, 0xe4, 0xea, 0xe1, 0xef, 0xdf, 0xf8, 0xec,
    0xfd, 0xd5, 0xd9, 0xd0, 0x2e, 0x24, 0x1d, 0x1c, 0xd5, 0xdd, 0xca, 0xf5,
    0xeb, 0xdd, 0xc2, 0xdf, 0xfc, 0xf9, 0xe9, 0x08, 0x19, 0x36, 0x17, 0x2e,
    0x1d, 0xe7, 0xea, 0xf3, 0xfd, 0x0f, 0x20, 0xff, 0xf5, 0xd9, 0xf4, 0xe9,
    0x15, 0x37, 0x13, 0x30, 0x2e, 0x13, 0x10, 0x05, 0xf7, 0xe3, 0xb7, 0xe2,
    0x20, 0xe5, 0xee, 0xf0, 0xf3, 0xce, 0xcf, 0xc3, 0x06, 0x04, 0x07, 0x09,
    0xeb, 0x17, 0xf9, 0x24, 0xd9, 0xdf, 0xb5, 0xfc, 0xf7, 0xf0, 0xd7, 0xe4,
    0x12, 0xdb, 0xd7, 0xe0, 0x04, 0xf4, 0xdb, 0xe4, 0xf7, 0xf1, 0xf5, 0xe2,
    0x01, 0xf3, 0xf9, 0xea, 0x01, 0xe3, 0xfc, 0xdf, 0x07, 0xe2, 0xe2, 0xe7,
    0xd6, 0xe5, 0xd2, 0xcf, 0x20, 0x02, 0x1f, 0x13, 0xe5, 0xed, 0xd9, 0x02,
    0xf8, 0xe9, 0xcd, 0x01, 0xef, 0xe7, 0xdc, 0xf1, 0x15, 0x12, 0x38, 0x2d,
    0x19, 0xe0, 0xfc, 0xf6, 0xf1, 0xd9, 0xe6, 0xef, 0xf5, 0xdd, 0xee, 0xde,
    0x15, 0x31, 0x13, 0x23, 0x16, 0x11, 0x1d, 0xfc, 0x02, 0xe3, 0xe9, 0xca,
    0x0e, 0xfa, 0xfb, 0xfe, 0xed, 0xea, 0xf4, 0xfa, 0xfb, 0x10, 0xea, 0x31,
    0xd9, 0xf4, 0xc3, 0xf0, 0xfe, 0xe7, 0xc2, 0xdd, 0x1d, 0x06, 0xfd, 0xe3,
    0x06, 0xe9, 0xf8, 0xe5, 0x01, 0xfd, 0x03, 0xf5, 0x1d, 0x12, 0x19, 0x10,
    0x0b, 0xe7, 0x17, 0xfd, 0xef, 0xcf, 0x06, 0xd8, 0xf9, 0xe0, 0xf6, 0xcc,
    0xbf, 0xcc, 0xc2, 0xbd, 0xf8, 0xf9, 0xed, 0xe4, 0x02, 0xcf, 0xcc, 0xe9,
    0xeb, 0xdd, 0xe1, 0xe4, 0x13, 0x1c, 0x11, 0x1b, 0x14, 0x0a, 0x46, 0x01,
    0x0e, 0x12, 0x20, 0xfd, 0xf9, 0xf7, 0xd2, 0x04, 0xf5, 0xe9, 0xd7, 0xf9,
    0x1a, 0x4a, 0x1d, 0x2e, 0x10, 0x37, 0x35, 0x2f, 0xfd, 0xfd, 0xd9, 0x2a,
    0x0f, 0xe9, 0xea, 0x02, 0xee, 0xba, 0xc0, 0xd9, 0xe9, 0xf1, 0xb3, 0xe5,
    0xcf, 0xed, 0xc6, 0xf2, 0xef, 0xf3, 0xbf, 0xe6, 0xfe, 0xf2, 0xfa, 0xea,
    0xf8, 0xf4, 0xf4, 0xd9, 0x23, 0xeb, 0x0c, 0xf4, 0xed, 0x04, 0x18, 0xf9,
    0x0b, 0x00, 0x2e, 0x03, 0x22, 0x08, 0x27, 0xf1, 0x01, 0xe6, 0xf1, 0xde,
    0x0c, 0xea, 0xfe, 0xe6, 0x19, 0x15, 0x1d, 0x0b, 0x22, 0x29, 0x12, 0x32,
    0x17, 0x17, 0x09, 0xfd, 0xf5, 0x17, 0x28, 0x09, 0xee, 0xf2, 0x36, 0x02,
    0xe9, 0x0b, 0xe7, 0x10, 0xf6, 0xfe, 0xea, 0xfd, 0xfc, 0x07, 0x0a, 0x02,
    0xe2, 0x0d, 0x09, 0x00, 0xf0, 0x0d, 0xff, 0x14, 0xfc, 0x06, 0x0f, 0x1d,
    0x27, 0xf2, 0xe9, 0xf3, 0xcb, 0xbf, 0x8c, 0xcb, 0xdf, 0xff, 0x9e, 0xf6,
    0xea, 0xed, 0xd5, 0xf4, 0xea, 0xd7, 0xcc, 0xf1, 0xfa, 0x03, 0xee, 0x1c,
    0x07, 0x15, 0x00, 0x0e, 0x1a, 0x28, 0x21, 0x36, 0xf9, 0x02, 0x18, 0x1a,
    0xfd, 0x0c, 0x15, 0xee, 0xfa, 0x0d, 0x13, 0x06, 0x0c, 0x15, 0x1b, 0x25,
    0x0d, 0x10, 0x26, 0x18, 0x18, 0x3b, 0x51, 0x37, 0x25, 0x61, 0x64, 0x3e,
    0xf1, 0x0c, 0x27, 0x08, 0x09, 0x1f, 0x20, 0x28, 0x00, 0x33, 0x15, 0x39,
    0x19, 0x23, 0x0a, 0x2b, 0x08, 0x28, 0x1a, 0x3b, 0x08, 0x1b, 0x47, 0x3f,
    0x09, 0x1f, 0x27, 0x24, 0xfe, 0x04, 0xfa, 0x24, 0x00, 0x27, 0x1a, 0x38,
    0x1e, 0x05, 0xf7, 0x09, 0xe7, 0xe4, 0xc2, 0xc8, 0xf7, 0xea, 0xbd, 0xe0,
    0xe2, 0xe0, 0xce, 0xd3, 0xf3, 0xd6, 0xc0, 0xe5, 0xdd, 0xfa, 0xdc, 0x05,
    0xe6, 0xe1, 0xe8, 0xe6, 0xe1, 0xeb, 0xe8, 0xf2, 0xd8, 0xdc, 0xc3, 0xde,
    0xc8, 0xc5, 0xb1, 0xd1, 0xef, 0xe6, 0xc9, 0xe4, 0xff, 0xfd, 0xe6, 0x10,
    0x00, 0x02, 0xc8, 0xfd, 0x01, 0x2f, 0xf3, 0x19, 0x06, 0x3f, 0x2f, 0x41,
    0xfe, 0x07, 0x0b, 0x02, 0xf3, 0xfb, 0x07, 0x15, 0x36, 0x49, 0x23, 0x62,
    0x22, 0x17, 0x2f, 0x28, 0x27, 0x2e, 0x2b, 0x3c, 0x1a, 0x1f, 0x18, 0x3e,
    0x11, 0x20, 0x22, 0x2a, 0x18, 0x03, 0xfd, 0xf7, 0xfe, 0x22, 0x22, 0x1d,
    0x0d, 0x1b, 0x03, 0x2d, 0xf6, 0xf1, 0xed, 0xfa, 0xfa, 0xfb, 0xfa, 0xe5,
    0xfb, 0x1e, 0xfd, 0xf6, 0xe5, 0xf7, 0x05, 0xf0, 0x01, 0x0e, 0xf0, 0xf6,
    0x04, 0x0c, 0xfc, 0x0f, 0x07, 0x1e, 0x01, 0x1a, 0xff, 0x1e, 0x05, 0x05,
    0x12, 0x25, 0x22, 0x1e, 0x0a, 0x02, 0x12, 0xff, 0x0a, 0x0b, 0xea, 0x2a,
    0xf8, 0xfe, 0x01, 0xf4, 0xff, 0xec, 0xd9, 0xe8, 0xfc, 0xd8, 0xe7, 0xd6,
    0xed, 0xe3, 0xef, 0xe7, 0x03, 0x23, 0xff, 0x1d, 0x31, 0xf9, 0x05, 0x2d,
    0x1e, 0x01, 0x22, 0x28, 0x13, 0x41, 0x03, 0x44, 0x2d, 0x04, 0x1e, 0x0e,
    0x0d, 0xfc, 0x0f, 0x11, 0xe7, 0x06, 0x17, 0x25, 0xe9, 0x15, 0x14, 0x26,
    0xeb, 0x1a, 0x16, 0x1b, 0x15, 0x0e, 0x2a, 0x10, 0xfc, 0x00, 0xde, 0xf3,
    0x41, 0x52, 0x52, 0x62, 0x3a, 0x4e, 0x62, 0x58, 0x1a, 0x3e, 0x26, 0x3f,
    0x2a, 0x1f, 0x14, 0x2c, 0x2f, 0x36, 0x27, 0x2c, 0x00, 0xde, 0xd1, 0xd1,
    0x2f, 0x27, 0x19, 0x0f, 0x3a, 0x30, 0x65, 0x2a, 0x1a, 0x1e, 0x63, 0x26,
    0xfb, 0x2c, 0x22, 0x1d, 0x23, 0x26, 0x30, 0x3a, 0xf4, 0x1a, 0xe7, 0x20,
    0xda, 0xea, 0xa8, 0xd9, 0x00, 0x1e, 0xe2, 0x17, 0xe8, 0xdc, 0x9f, 0xfd,
    0xda, 0xbc, 0xae, 0xd3, 0x0b, 0xec, 0xf2, 0xe9, 0xde, 0xd2, 0xb3, 0xcc,
    0xeb, 0xc7, 0xb5, 0xd4, 0x01, 0xda, 0xf2, 0xd6, 0xf7, 0xf2, 0x02, 0xe6,
    0xe0, 0x3f, 0x19, 0x22, 0x17, 0x08, 0x28, 0xf9, 0xe7, 0x03, 0xf3, 0x25,
    0x16, 0x40, 0x21, 0x3c, 0x00, 0x2c, 0x1e, 0x38, 0xfe, 0x1a, 0x09, 0x3b,
    0x14, 0x12, 0x07, 0x09, 0x0b, 0xf0, 0xfa, 0xf4, 0xde, 0xb8, 0xc7, 0xbf,
    0x1f, 0xee, 0xff, 0xe9, 0x14, 0x16, 0x3e, 0x14, 0xfa, 0x02, 0x06, 0x08,
    0xf4, 0x07, 0x20, 0x17, 0x0a, 0x19, 0x2b, 0x26, 0x28, 0x14, 0x26, 0x31,
    0x10, 0xd7, 0xed, 0xce, 0x00, 0xbb, 0xd3, 0xa8, 0x11, 0xdd, 0xe8, 0xca,
    0xfc, 0xd6, 0xe9, 0xd2, 0x00, 0xc9, 0xdc, 0xab, 0x09, 0xc7, 0xd6, 0xb6,
    0x1f, 0xfa, 0x0f, 0xf3, 0x25, 0x58, 0x40, 0x3e, 0x0c, 0xf4, 0x05, 0x18,
    0x03, 0x37, 0x2b, 0x25, 0x17, 0x00, 0x31, 0xff, 0xf4, 0x09, 0x07, 0x00,
    0x1e, 0x26, 0x34, 0x1d, 0x2a, 0x27, 0x49, 0x12, 0x29, 0x31, 0x36, 0x1a,
    0x00, 0x07, 0x03, 0xff, 0x1b, 0xff, 0x07, 0xdc, 0xf4, 0xe3, 0xe2, 0xbe,
    0xfa, 0xc6, 0xf2, 0xc3, 0xf7, 0xed, 0x12, 0xd4, 0xe6, 0x06, 0xdf, 0xee,
    0x0d, 0x0d, 0x1e, 0x09, 0x06, 0x15, 0x1f, 0xf9, 0x25, 0x33, 0x3a, 0x1e,
    0x34, 0x12, 0x2b, 0x25, 0x12, 0xdf, 0xe3, 0xde, 0x0a, 0xc0, 0xca, 0xe2,
    0x02, 0xf2, 0xf9, 0xeb, 0x08, 0xf7, 0xfd, 0xf0, 0x09, 0x1c, 0x14, 0x1a,
    0x1a, 0xf7, 0xe2, 0x08, 0x1f, 0x47, 0x68, 0x43, 0xfd, 0xfd, 0x2d, 0x06,
    0xf5, 0x16, 0x10, 0x03, 0x0f, 0xe6, 0x2e, 0x01, 0xeb, 0x17, 0x0a, 0x05,
    0xef, 0x2b, 0x11, 0x34, 0x21, 0x2f, 0x1b, 0x3e, 0x29, 0x3e, 0x36, 0x29,
    0x08, 0x16, 0x19, 0x09, 0x01, 0xfc, 0xf9, 0xe3, 0x02, 0xeb, 0xff, 0xc7,
    0xe7, 0xca, 0xba, 0xd4, 0xdb, 0xd5, 0xd7, 0xc1, 0xfa, 0xf5, 0x0d, 0xf3,
    0xf6, 0xf2, 0x02, 0xf0, 0x0b, 0x0b, 0x00, 0x10, 0x0e, 0x24, 0x17, 0x1a,
    0x3b, 0xf3, 0x19, 0xf4, 0x25, 0xf1, 0xd8, 0xe6, 0x06, 0xda, 0xe0, 0xcd,
    0x01, 0x1e, 0xfd, 0x25, 0x1c, 0x0c, 0x2c, 0x07, 0x2d, 0x0e, 0x46, 0x1c,
    0x11, 0xfd, 0x09, 0xe7, 0x21, 0x57, 0x6a, 0x49, 0x18, 0x23, 0x4a, 0x31,
    0xfc, 0x12, 0xff, 0x09, 0x01, 0x03, 0x2c, 0x11, 0xea, 0x0b, 0x26, 0x16,
    0xea, 0xfe, 0xee, 0x1c, 0x21, 0x31, 0x18, 0x39, 0x18, 0x0f, 0x16, 0x17,
    0xf9, 0xe4, 0x08, 0xf7, 0xf8, 0xfc, 0x0a, 0x0e, 0x19, 0xff, 0x0f, 0x0d,
    0x0e, 0xfc, 0xdc, 0xf7, 0x04, 0x1f, 0x12, 0x18, 0xff, 0x14, 0x0a, 0x2d,
    0xf5, 0x00, 0xe9, 0xf0, 0xe8, 0x12, 0x16, 0x25, 0x15, 0x25, 0x11, 0x17,
    0x1d, 0xee, 0xe9, 0x11, 0x09, 0xd2, 0xbc, 0xd1, 0xf5, 0xf3, 0xf1, 0xc8,
    0xe0, 0xd8, 0x05, 0xd9, 0x01, 0x0b, 0x0a, 0xf7, 0xf7, 0xe1, 0x00, 0xf7,
    0x37, 0x0a, 0x21, 0x1a, 0x01, 0x05, 0x1f, 0x0b, 0xf9, 0x02, 0xff, 0x09,
    0x27, 0xf1, 0xe5, 0xdc, 0x09, 0x25, 0x44, 0x29, 0xdf, 0x17, 0x0f, 0x13,
    0xce, 0xe2, 0xe6, 0xeb, 0xfd, 0xe9, 0xfd, 0xfb, 0xee, 0x17, 0x03, 0xfe,
    0xe2, 0xe0, 0xd0, 0xe7, 0xef, 0x06, 0xf6, 0x12, 0x12, 0xff, 0xf5, 0xf0,
    0xee, 0xed, 0xcc, 0xf7, 0x0d, 0x38, 0x1a, 0x23, 0x1a, 0x12, 0x0b, 0x11,
    0x1a, 0xfe, 0xf5, 0x0e, 0xf1, 0xdd, 0xf5, 0xee, 0x12, 0xfa, 0x05, 0x15,
    0x0c, 0xf7, 0xdc, 0xe3, 0xe3, 0xc1, 0xac, 0xc5, 0x0f, 0x0f, 0x07, 0x2c,
    0xf9, 0xf7, 0xcb, 0x15, 0x02, 0x10, 0xe6, 0x0f, 0xfa, 0x13, 0xc0, 0xfb,
    0x16, 0x28, 0xef, 0x28, 0x0b, 0x02, 0xde, 0x14, 0xd8, 0x04, 0xde, 0xf9,
    0x06, 0xcb, 0xf1, 0xe3, 0x1c, 0x1c, 0x39, 0x0f, 0x01, 0x2f, 0x4a, 0x37,
    0xf5, 0xf2, 0xec, 0x12, 0xfe, 0xfa, 0x19, 0xe3, 0x16, 0xf2, 0x0d, 0xff,
    0x00, 0xf1, 0xfb, 0xea, 0xfe, 0xe8, 0x00, 0xe7, 0xf8, 0xca, 0xca, 0xd3,
    0xd9, 0xd9, 0xad, 0xba, 0xf0, 0x0d, 0xf6, 0xf2, 0x1b, 0x1c, 0x03, 0x14,
    0x06, 0x18, 0xf4, 0x08, 0xeb, 0xe7, 0xd9, 0xf3, 0xfc, 0xfc, 0xe9, 0x1a,
    0xfa, 0xea, 0xd4, 0x14, 0xfd, 0xdd, 0xcf, 0xf8, 0x36, 0x61, 0x13, 0x64,
    0x22, 0x31, 0x17, 0x44, 0x07, 0x14, 0xe8, 0x00, 0xe6, 0x0e, 0xc7, 0x18,
    0xf4, 0xff, 0xbf, 0x14, 0xef, 0x2b, 0xc8, 0x18, 0xdc, 0xf2, 0xc2, 0xde,
    0x0c, 0xd5, 0xef, 0xfa, 0xff, 0xf2, 0x1f, 0x05, 0x05, 0x2f, 0x26, 0x3b,
    0xfd, 0x2e, 0x2f, 0x29, 0x0a, 0x17, 0x1b, 0x08, 0x09, 0xf8, 0xf6, 0x00,
    0x17, 0x10, 0x01, 0x20, 0x06, 0xe7, 0xf9, 0x02, 0x01, 0xcc, 0xe0, 0xe6,
    0xf0, 0xd1, 0xba, 0xd1, 0x0c, 0x0a, 0xe6, 0x26, 0xf4, 0x07, 0xe3, 0x1d,
    0x0e, 0x2a, 0xf4, 0x13, 0xe6, 0x21, 0x01, 0x10, 0x08, 0x13, 0xcb, 0x1c,
    0xe3, 0xe1, 0xa5, 0xfd, 0xf5, 0xdc, 0xbe, 0xea, 0xfc, 0x0a, 0xeb, 0x11,
    0xf7, 0x09, 0xdd, 0x0f, 0xcd, 0x00, 0xba, 0x0b, 0xe4, 0xff, 0xb8, 0xfa,
    0xd6, 0xd8, 0x94, 0xf3, 0xe7, 0x0f, 0xd6, 0x03, 0xe8, 0xf9, 0xf5, 0x18,
    0x39, 0xe8, 0xf3, 0x0d, 0x04, 0xf2, 0x26, 0xf2, 0x02, 0x15, 0x1b, 0x21,
    0x03, 0x2e, 0x19, 0x60, 0xee, 0x28, 0x14, 0x44, 0xf0, 0x07, 0xe7, 0x1f,
    0x24, 0x3a, 0x11, 0x43, 0x11, 0x0d, 0xeb, 0x14, 0x06, 0xdb, 0xc8, 0xe3,
    0xe4, 0xe5, 0xb9, 0xf0, 0x0b, 0xf1, 0xea, 0x10, 0x0c, 0xf8, 0xe2, 0x0f,
    0x03, 0x10, 0xde, 0xff, 0xd5, 0xe3, 0xd2, 0x09, 0xe9, 0x08, 0xcf, 0xfd,
    0xcc, 0xbe, 0x85, 0xd6, 0x05, 0xe0, 0xd0, 0xf1, 0xd8, 0xf1, 0xd9, 0xf6,
    0xeb, 0xec, 0xe9, 0xf5, 0xf5, 0x01, 0xdb, 0xfd, 0x00, 0x08, 0xfa, 0x0a,
    0x05, 0xfd, 0xe8, 0x00, 0xfe, 0x19, 0x38, 0x1c, 0x19, 0x2e, 0x37, 0x3e,
    0x26, 0xe9, 0x12, 0x05, 0xf9, 0xd4, 0x0c, 0xf9, 0xeb, 0x36, 0x22, 0x35,
    0x03, 0x24, 0x19, 0x41, 0xdd, 0x19, 0x19, 0x15, 0xdc, 0xf8, 0xe4, 0x10,
    0xef, 0x17, 0xec, 0x18, 0xfd, 0x0f, 0x0f, 0x1f, 0xe1, 0xce, 0xd8, 0xd6,
    0xf1, 0xe0, 0xb2, 0xe6, 0xf7, 0xfa, 0xe2, 0xeb, 0xee, 0xe7, 0xd9, 0x01,
    0xf0, 0x12, 0xf4, 0x12, 0xe8, 0x10, 0xe3, 0x1b, 0xfc, 0x0c, 0xf8, 0x0d,
    0xf7, 0xe6, 0xd5, 0xee, 0x27, 0xd9, 0xec, 0xe3, 0xed, 0xfd, 0xfc, 0x02,
    0x01, 0xf7, 0xfa, 0xe7, 0xf2, 0x01, 0xfb, 0x02, 0x1e, 0x0c, 0x1e, 0x06,
    0x1b, 0xf8, 0xee, 0xf0, 0x27, 0x23, 0x18, 0x13, 0x1a, 0x26, 0x29, 0x17,
    0x2b, 0xeb, 0x14, 0xed, 0xf5, 0xe7, 0x1e, 0x17, 0xf4, 0x23, 0xf5, 0x53,
    0x05, 0x12, 0xfc, 0x41, 0x01, 0x2b, 0x18, 0x40, 0xff, 0x1e, 0x04, 0x2f,
    0xf6, 0xfa, 0xf2, 0xea, 0xe6, 0x12, 0xe8, 0x00, 0xfe, 0xe0, 0xe9, 0xe4,
    0xdb, 0xd7, 0xa0, 0xc3, 0x11, 0x19, 0xf0, 0x17, 0xec, 0xe7, 0xcf, 0xdf,
    0x05, 0x15, 0xf9, 0x19, 0xfb, 0x07, 0xfc, 0x20, 0xf9, 0xf0, 0xe7, 0xfe,
    0xf8, 0xdb, 0xd3, 0xe1, 0x0b, 0x00, 0xf9, 0x06, 0xef, 0x0d, 0xf9, 0x16,
    0xf5, 0xeb, 0x07, 0xf5, 0xee, 0x09, 0xeb, 0xf3, 0xf9, 0x31, 0x12, 0x1a,
    0xf4, 0xe8, 0xdd, 0x0b, 0x0e, 0x3a, 0x20, 0x41, 0xfc, 0x17, 0x17, 0x18,
    0x10, 0xe6, 0xe8, 0xd7, 0xea, 0xc6, 0xcd, 0xd4, 0xf0, 0x0f, 0x05, 0x2a,
    0xfb, 0x1d, 0x1a, 0x08, 0x10, 0x0a, 0x1f, 0x22, 0x1d, 0xf8, 0x02, 0x0a,
    0x0c, 0xf3, 0xea, 0xe4, 0xe8, 0xfb, 0xf6, 0xfb, 0x14, 0x09, 0x20, 0x19,
    0xfc, 0xd9, 0xba, 0xde, 0x1e, 0x0b, 0xfc, 0x0c, 0xc4, 0xe2, 0xaa, 0xd8,
    0xdb, 0xe7, 0xd8, 0xe1, 0xf1, 0xeb, 0xd1, 0xe0, 0xf7, 0x00, 0xea, 0xe8,
    0xe6, 0xbf, 0xbe, 0xac, 0xed, 0xd2, 0xd7, 0xf2, 0xf5, 0x3f, 0x00, 0x48,
    0xfb, 0x00, 0x06, 0x09, 0x06, 0x02, 0xeb, 0x21, 0xf7, 0x0b, 0xef, 0x1c,
    0xdc, 0xe9, 0xcc, 0xd3, 0x00, 0x09, 0xfc, 0x05, 0x1d, 0x38, 0x42, 0x2a,
    0x12, 0xe4, 0xe0, 0xd2, 0x09, 0xe8, 0x12, 0xf2, 0x05, 0x19, 0xfe, 0x16,
    0x0c, 0x17, 0xf6, 0x02, 0xf8, 0x00, 0x03, 0xff, 0xf8, 0xed, 0xe3, 0xec,
    0x12, 0x0b, 0xfc, 0x0d, 0x02, 0x0f, 0x0e, 0x30, 0x19, 0x11, 0x15, 0xf3,
    0x09, 0xf3, 0xc9, 0x00, 0x1d, 0x17, 0xef, 0x02, 0xed, 0xf7, 0xce, 0xfd,
    0x04, 0xfa, 0xe7, 0x0b, 0xe7, 0xe6, 0xe0, 0xe6, 0x03, 0x01, 0xdc, 0x22,
    0xf1, 0xd6, 0xc1, 0xf8, 0xe4, 0xe9, 0xd1, 0xe5, 0xdb, 0x09, 0xe5, 0x0c,
    0xda, 0x19, 0x19, 0x0d, 0x14, 0x00, 0x0c, 0x16, 0x23, 0x26, 0x15, 0x17,
    0x05, 0x01, 0xcf, 0xf9, 0x07, 0xfc, 0xf6, 0x0b, 0x06, 0xdc, 0xd3, 0xf9,
    0x0f, 0xea, 0x08, 0xf6, 0xe9, 0x19, 0xe8, 0x11, 0xeb, 0x1e, 0xea, 0x28,
    0x07, 0x30, 0x01, 0x30, 0x22, 0x36, 0x03, 0x48, 0x09, 0x25, 0xdf, 0x18,
    0x19, 0x37, 0x08, 0x35, 0x1f, 0x2e, 0x12, 0x49, 0xdf, 0x18, 0xf3, 0x39,
    0xe4, 0x03, 0xce, 0x07, 0x09, 0x10, 0xec, 0x0c, 0xfd, 0xf4, 0xd2, 0xfb,
    0x04, 0x0a, 0xfd, 0x24, 0xf2, 0xfb, 0xc9, 0xf3, 0xf0, 0xf3, 0xf0, 0x1a,
    0xfb, 0xef, 0xfd, 0xe6, 0x04, 0xff, 0xe5, 0xe2, 0xe4, 0xdf, 0xc5, 0xf1,
    0xdc, 0xf9, 0x14, 0x21, 0xff, 0x09, 0xf4, 0x01, 0xf5, 0xef, 0xe0, 0x02,
    0xea, 0xd9, 0xa6, 0xe1, 0xe7, 0xf3, 0xa8, 0xe2, 0xde, 0xc0, 0xa4, 0xac,
    0xf1, 0x0b, 0x13, 0x0b, 0x13, 0x1b, 0xfd, 0x37, 0x02, 0x0b, 0xea, 0x08,
    0x04, 0x23, 0x0c, 0x1d, 0xf6, 0x0b, 0xfe, 0x25, 0x0d, 0x01, 0xd8, 0x20,
    0x03, 0x14, 0xf2, 0x08, 0x07, 0x01, 0xf4, 0xf6, 0x01, 0xf2, 0xe4, 0x05,
    0xf4, 0xff, 0xde, 0xf0, 0xf5, 0x04, 0xe6, 0xfb, 0xcd, 0xd9, 0xc5, 0xd9,
    0xec, 0x07, 0xde, 0x09, 0xf1, 0x0b, 0xf7, 0x08, 0x15, 0x07, 0xfc, 0xf2,
    0x27, 0xfc, 0x09, 0xf8, 0x0e, 0x05, 0xd9, 0xfb, 0xf6, 0x13, 0xcd, 0xef,
    0xe9, 0x07, 0x21, 0x26, 0xd8, 0xcf, 0xd4, 0xcc, 0xd0, 0xdd, 0xba, 0xc5,
    0xea, 0xb7, 0xb0, 0xbc, 0x14, 0xe5, 0xd6, 0xf6, 0xd4, 0xdd, 0xc9, 0xc6,
    0xff, 0x13, 0x0f, 0xeb, 0x03, 0x21, 0xf8, 0x1f, 0x0c, 0xf4, 0xe8, 0x12,
    0x0d, 0xf2, 0x17, 0x15, 0xe5, 0xd3, 0xd5, 0xe6, 0x1c, 0x15, 0x0a, 0x1d,
    0xea, 0xec, 0xea, 0xe1, 0x07, 0xee, 0x0e, 0xe8, 0x17, 0xfc, 0x28, 0x00,
    0x0b, 0x16, 0x1f, 0x01, 0xf8, 0x09, 0x02, 0x0e, 0xea, 0xe3, 0xf6, 0x07,
    0xd9, 0x0d, 0xe7, 0x1b, 0x08, 0x37, 0x23, 0x3b, 0xe0, 0xe3, 0xc9, 0xde,
    0xea, 0xec, 0xdc, 0xf3, 0xdd, 0x07, 0xc8, 0xf1, 0xd5, 0xe5, 0x9f, 0xf7,
    0xc7, 0x15, 0xfe, 0x19, 0xc7, 0xdb, 0xd2, 0x01, 0x14, 0xe6, 0xc9, 0xff,
    0xfc, 0xe5, 0xc3, 0xe8, 0x29, 0x22, 0xd8, 0x37, 0x1c, 0x3d, 0x14, 0x48,
    0xcc, 0x15, 0x05, 0x09, 0x17, 0x17, 0x12, 0x3e, 0xf6, 0xfb, 0x02, 0x15,
    0x04, 0x02, 0x06, 0xf0, 0x12, 0xeb, 0x04, 0xc8, 0x24, 0x0c, 0x39, 0xe2,
    0xf2, 0xe2, 0x22, 0xcf, 0x27, 0x1b, 0x43, 0x1e, 0x13, 0x0c, 0x36, 0x02,
    0xf6, 0x1b, 0x11, 0x16, 0x07, 0x01, 0xf4, 0x1d, 0x03, 0x06, 0xfc, 0x03,
    0x06, 0x37, 0x2d, 0x15, 0xf7, 0x12, 0x0f, 0x11, 0xed, 0x02, 0xef, 0xdb,
    0x1b, 0x18, 0x32, 0xf3, 0xfa, 0xfe, 0x02, 0xea, 0xeb, 0xe0, 0xbe, 0xbf,
    0xeb, 0x28, 0x0b, 0x19, 0xf3, 0xf4, 0xe5, 0x11, 0x2c, 0x1d, 0x09, 0x1f,
    0xf2, 0xd1, 0xc2, 0xcd, 0xe3, 0x03, 0xbf, 0x0d, 0x1f, 0x60, 0x59, 0x52,
    0x06, 0x36, 0x28, 0x1f, 0x17, 0x41, 0x23, 0x23, 0x1c, 0x17, 0x17, 0x15,
    0xf1, 0xf6, 0x22, 0xf6, 0x02, 0xe9, 0x39, 0xf4, 0x19, 0xfd, 0x2a, 0xfe,
    0xf6, 0x34, 0x29, 0x11, 0x03, 0x21, 0x4e, 0x22, 0x0c, 0x2a, 0x20, 0x30,
    0x0a, 0x2a, 0x09, 0x34, 0x23, 0x15, 0x1f, 0x21, 0x12, 0x11, 0x1c, 0x35,
    0x18, 0x28, 0x2e, 0x15, 0xe9, 0xe2, 0xde, 0x03, 0x2d, 0x28, 0x25, 0x26,
    0x27, 0x31, 0x45, 0x22, 0x05, 0x17, 0x13, 0xf8, 0xf5, 0xe4, 0xda, 0xc8,
    0xea, 0x0e, 0x19, 0x20, 0x03, 0x06, 0xf5, 0xec, 0x0b, 0x0c, 0x1f, 0x1b,
    0xdd, 0xca, 0xf0, 0xd7, 0xe8, 0xe3, 0xe1, 0xfe, 0xf9, 0x30, 0x4a, 0x28,
    0xff, 0xfe, 0x2b, 0xf5, 0x0f, 0x41, 0x39, 0x35, 0x0a, 0xf3, 0xee, 0xf5,
    0x09, 0xe6, 0x20, 0xea, 0x08, 0x17, 0x2d, 0x1b, 0xf2, 0x0a, 0x28, 0x29,
    0xfa, 0x27, 0x1d, 0x22, 0x14, 0x0a, 0x1b, 0x1e, 0xee, 0x07, 0x10, 0x0b,
    0x09, 0x19, 0xff, 0x20, 0x00, 0x0f, 0x07, 0x0e, 0x06, 0x15, 0x1b, 0x33,
    0x08, 0x22, 0x17, 0x39, 0xd2, 0xdb, 0xf6, 0xf8, 0x17, 0x0e, 0x2a, 0x02,
    0x08, 0x2b, 0x3b, 0x21, 0xff, 0x16, 0x24, 0x17, 0x03, 0xd4, 0xe5, 0xf6,
    0xfa, 0x2a, 0xfc, 0x27, 0x15, 0x1a, 0x01, 0x1d, 0x1a, 0x29, 0x28, 0x36,
    0xee, 0xde, 0xdf, 0xf6, 0xef, 0x12, 0xcd, 0x06, 0xea, 0x36, 0x0d, 0x33,
    0xee, 0x0b, 0x08, 0xfe, 0xff, 0x27, 0x0e, 0x09, 0x14, 0xf6, 0x17, 0xc6,
    0x12, 0x07, 0x35, 0xf9, 0x1f, 0x21, 0x41, 0x34, 0xe4, 0x0c, 0xfd, 0x0c,
    0x00, 0x0e, 0x16, 0x24, 0xee, 0x18, 0x13, 0x09, 0xe1, 0xf1, 0xfc, 0x0c,
    0xfc, 0x1e, 0xf6, 0xff, 0xfe, 0x27, 0xf5, 0x29, 0xf7, 0x39, 0xfb, 0x2e,
    0x2e, 0x39, 0x4b, 0x42, 0x02, 0x1a, 0x04, 0x1f, 0x0e, 0x13, 0x1a, 0x31,
    0x0e, 0x21, 0x1c, 0x03, 0xe6, 0xfc, 0xf2, 0xe5, 0xf3, 0xe5, 0xd6, 0xf4,
    0x05, 0xec, 0xe9, 0x04, 0x1e, 0x0a, 0x37, 0x10, 0x27, 0x25, 0x13, 0x13,
    0xe2, 0xd2, 0xcf, 0xc3, 0xe6, 0xd2, 0xc5, 0xb7, 0xfc, 0xf1, 0x10, 0xf1,
    0xdd, 0x17, 0x20, 0x03, 0x12, 0x49, 0x31, 0x3b, 0x2e, 0x0e, 0x4e, 0x12,
    0x23, 0x0f, 0x59, 0xfa, 0x1e, 0x23, 0x46, 0x13, 0xf2, 0x1f, 0x02, 0x1d,
    0x04, 0x21, 0x14, 0x19, 0xed, 0xf9, 0xf5, 0xf7, 0x14, 0x0f, 0xd1, 0x10,
    0xe7, 0x03, 0xce, 0xf2, 0xde, 0xfb, 0xea, 0x04, 0xe7, 0x16, 0x07, 0x2d,
    0x12, 0x06, 0x11, 0x1b, 0xcb, 0xfb, 0xe3, 0xe5, 0xd1, 0xd4, 0xd6, 0xd3,
    0xfe, 0xf6, 0xf7, 0x09, 0xff, 0xe2, 0xe9, 0xf8, 0x0c, 0x03, 0xe3, 0x02,
    0x18, 0x0c, 0x0a, 0x09, 0x0f, 0xf8, 0x0e, 0x0b, 0x10, 0x01, 0xf4, 0x0e,
    0x15, 0x0e, 0x00, 0xff, 0x08, 0xea, 0xfd, 0xf1, 0x14, 0xe6, 0xf8, 0xed,
    0xe6, 0x06, 0x22, 0x17, 0x3e, 0x49, 0x6a, 0x45, 0x23, 0x1a, 0x56, 0x02,
    0x16, 0x02, 0x40, 0x05, 0x03, 0x22, 0x37, 0x18, 0xfc, 0x03, 0x17, 0xe6,
    0xf9, 0xee, 0x06, 0xeb, 0xe4, 0xc9, 0xdc, 0xd3, 0xf3, 0x06, 0xe3, 0xed,
    0x08, 0x15, 0xea, 0x05, 0x06, 0x03, 0xee, 0x12, 0xf5, 0xdf, 0xe9, 0xe7,
    0xe7, 0x03, 0xdb, 0xe2, 0xdd, 0xdb, 0xaf, 0xc3, 0xda, 0xaa, 0x90, 0xc4,
    0x02, 0xf4, 0xd9, 0xed, 0x0a, 0xeb, 0xf3, 0xe9, 0x08, 0xcd, 0xe6, 0xb8,
    0xe6, 0xca, 0xf8, 0xb3, 0xeb, 0xc9, 0xf0, 0xb6, 0xf9, 0xc2, 0xbf, 0xba,
    0xe1, 0xd1, 0xdd, 0xea, 0xf2, 0xe6, 0x1d, 0xdf, 0xf8, 0xe1, 0xea, 0xcb,
    0xf3, 0x06, 0x13, 0xf3, 0x2b, 0x2a, 0x46, 0x2a, 0x24, 0x25, 0x41, 0x1e,
    0x01, 0x2b, 0x21, 0x13, 0x14, 0x15, 0x2d, 0x14, 0x01, 0x14, 0x45, 0x10,
    0x07, 0x0f, 0x24, 0x0b, 0x17, 0x09, 0x15, 0x0a, 0x3b, 0x1a, 0x31, 0x17,
    0x26, 0x2c, 0x3c, 0x24, 0x24, 0x1d, 0x42, 0x19, 0xff, 0xf4, 0x26, 0xfa,
    0x04, 0x14, 0x3d, 0xed, 0xf7, 0xf2, 0xfe, 0xe1, 0xdc, 0xac, 0xd5, 0xb6,
    0x07, 0x04, 0x0f, 0x06, 0x0e, 0xfa, 0x0e, 0xf4, 0xc7, 0xc7, 0xc5, 0xb6,
    0xe7, 0xe9, 0xf1, 0xd5, 0xdd, 0xd5, 0xe5, 0xd1, 0xf7, 0xd2, 0xde, 0xd2,
    0xde, 0xf1, 0xeb, 0xdf, 0xe1, 0xff, 0xf6, 0x04, 0x04, 0xe8, 0xf2, 0xd6,
    0xea, 0xe9, 0x12, 0xe4, 0x52, 0xff, 0xff, 0xff, 0x04, 0x00, 0x00, 0x00,
    0x08, 0x00, 0x00, 0x00, 0x76, 0xff, 0xff, 0xff, 0x8a, 0x00, 0x00, 0x00,
    0x30, 0xff, 0xff, 0xff, 0x34, 0xff, 0xff, 0xff, 0x0f, 0x00, 0x00, 0x00,
    0x54, 0x4f, 0x43, 0x4f, 0x20, 0x43, 0x6f, 0x6e, 0x76, 0x65, 0x72, 0x74,
    0x65, 0x64, 0x2e, 0x00, 0x01, 0x00, 0x00, 0x00, 0x14, 0x00, 0x00, 0x00,
    0x00, 0x00, 0x0e, 0x00, 0x18, 0x00, 0x14, 0x00, 0x10, 0x00, 0x0c, 0x00,
    0x08, 0x00, 0x04, 0x00, 0x0e, 0x00, 0x00, 0x00, 0x14, 0x00, 0x00, 0x00,
    0x1c, 0x00, 0x00, 0x00, 0xd8, 0x02, 0x00, 0x00, 0xdc, 0x02, 0x00, 0x00,
    0xe0, 0x02, 0x00, 0x00, 0x04, 0x00, 0x00, 0x00, 0x6d, 0x61, 0x69, 0x6e,
    0x00, 0x00, 0x00, 0x00, 0x09, 0x00, 0x00, 0x00, 0x6c, 0x02, 0x00, 0x00,
    0x04, 0x02, 0x00, 0x00, 0xb0, 0x01, 0x00, 0x00, 0x5c, 0x01, 0x00, 0x00,
    0x08, 0x01, 0x00, 0x00, 0xc4, 0x00, 0x00, 0x00, 0x7c, 0x00, 0x00, 0x00,
    0x40, 0x00, 0x00, 0x00, 0x04, 0x00, 0x00, 0x00, 0x7a, 0xfe, 0xff, 0xff,
    0x1c, 0x00, 0x00, 0x00, 0x00, 0x00, 0x00, 0x09, 0x1c, 0x00, 0x00, 0x00,
    0x20, 0x00, 0x00, 0x00, 0x04, 0x00, 0x00, 0x00, 0x00, 0x00, 0x06, 0x00,
    0x08, 0x00, 0x04, 0x00, 0x06, 0x00, 0x00, 0x00, 0x00, 0x00, 0x80, 0x3f,
    0x01, 0x00, 0x00, 0x00, 0x15, 0x00, 0x00, 0x00, 0x01, 0x00, 0x00, 0x00,
    0x14, 0x00, 0x00, 0x00, 0xb2, 0xfe, 0xff, 0xff, 0x18, 0x00, 0x00, 0x00,
    0x00, 0x00, 0x00, 0x08, 0x14, 0x00, 0x00, 0x00, 0x18, 0x00, 0x00, 0x00,
    0x03, 0x00, 0x00, 0x00, 0x04, 0x00, 0x04, 0x00, 0x04, 0x00, 0x00, 0x00,
    0x01, 0x00, 0x00, 0x00, 0x14, 0x00, 0x00, 0x00, 0x03, 0x00, 0x00, 0x00,
    0x13, 0x00, 0x00, 0x00, 0x02, 0x00, 0x00, 0x00, 0x01, 0x00, 0x00, 0x00,
    0xea, 0xfe, 0xff, 0xff, 0x14, 0x00, 0x00, 0x00, 0x00, 0x00, 0x00, 0x01,
    0x20, 0x00, 0x00, 0x00, 0x24, 0x00, 0x00, 0x00, 0x02, 0x00, 0x00, 0x00,
    0x7c, 0xff, 0xff, 0xff, 0x00, 0x00, 0x00, 0x01, 0x01, 0x00, 0x00, 0x00,
    0x01, 0x00, 0x00, 0x00, 0x00, 0x00, 0x00, 0x01, 0x01, 0x00, 0x00, 0x00,
    0x13, 0x00, 0x00, 0x00, 0x03, 0x00, 0x00, 0x00, 0x12, 0x00, 0x00, 0x00,
    0x04, 0x00, 0x00, 0x00, 0x03, 0x00, 0x00, 0x00, 0x2e, 0xff, 0xff, 0xff,
    0x14, 0x00, 0x00, 0x00, 0x00, 0x00, 0x00, 0x05, 0x24, 0x00, 0x00, 0x00,
    0x28, 0x00, 0x00, 0x00, 0x01, 0x00, 0x00, 0x00, 0x1e, 0xff, 0xff, 0xff,
    0x02, 0x00, 0x00, 0x00, 0x02, 0x00, 0x00, 0x00, 0x02, 0x00, 0x00, 0x00,
    0x02, 0x00, 0x00, 0x00, 0x00, 0x00, 0x00, 0x01, 0x01, 0x00, 0x00, 0x00,
    0x12, 0x00, 0x00, 0x00, 0x01, 0x00, 0x00, 0x00, 0x11, 0x00, 0x00, 0x00,
    0x6e, 0xff, 0xff, 0xff, 0x20, 0x00, 0x00, 0x00, 0x00, 0x00, 0x00, 0x01,
    0x2c, 0x00, 0x00, 0x00, 0x30, 0x00, 0x00, 0x00, 0x02, 0x00, 0x00, 0x00,
    0x0c, 0x00, 0x14, 0x00, 0x13, 0x00, 0x0c, 0x00, 0x08, 0x00, 0x07, 0x00,
    0x0c, 0x00, 0x00, 0x00, 0x00, 0x00, 0x00, 0x01, 0x01, 0x00, 0x00, 0x00,
    0x01, 0x00, 0x00, 0x00, 0x00, 0x00, 0x00, 0x01, 0x01, 0x00, 0x00, 0x00,
    0x11, 0x00, 0x00, 0x00, 0x03, 0x00, 0x00, 0x00, 0x10, 0x00, 0x00, 0x00,
    0x06, 0x00, 0x00, 0x00, 0x05, 0x00, 0x00, 0x00, 0x0a, 0xff, 0xff, 0xff,
    0x10, 0x00, 0x00, 0x00, 0x00, 0x00, 0x00, 0x02, 0x1c, 0x00, 0x00, 0x00,
    0x20, 0x00, 0x00, 0x00, 0xfa, 0xfe, 0xff, 0xff, 0x00, 0x00, 0x00, 0x01,
    0x01, 0x00, 0x00, 0x00, 0x01, 0x00, 0x00, 0x00, 0x01, 0x00, 0x00, 0x00,
    0x01, 0x00, 0x00, 0x00, 0x10, 0x00, 0x00, 0x00, 0x03, 0x00, 0x00, 0x00,
    0x0f, 0x00, 0x00, 0x00, 0x08, 0x00, 0x00, 0x00, 0x07, 0x00, 0x00, 0x00,
    0x00, 0x00, 0x0e, 0x00, 0x1a, 0x00, 0x14, 0x00, 0x10, 0x00, 0x0c, 0x00,
    0x0b, 0x00, 0x04, 0x00, 0x0e, 0x00, 0x00, 0x00, 0x24, 0x00, 0x00, 0x00,
    0x00, 0x00, 0x00, 0x05, 0x34, 0x00, 0x00, 0x00, 0x38, 0x00, 0x00, 0x00,
    0x01, 0x00, 0x00, 0x00, 0x00, 0x00, 0x0e, 0x00, 0x18, 0x00, 0x17, 0x00,
    0x10, 0x00, 0x0c, 0x00, 0x08, 0x00, 0x04, 0x00, 0x0e, 0x00, 0x00, 0x00,
    0x02, 0x00, 0x00, 0x00, 0x02, 0x00, 0x00, 0x00, 0x02, 0x00, 0x00, 0x00,
    0x02, 0x00, 0x00, 0x00, 0x00, 0x00, 0x00, 0x01, 0x01, 0x00, 0x00, 0x00,
    0x0f, 0x00, 0x00, 0x00, 0x01, 0x00, 0x00, 0x00, 0x0e, 0x00, 0x00, 0x00,
    0xaa, 0xff, 0xff, 0xff, 0x20, 0x00, 0x00, 0x00, 0x00, 0x00, 0x00, 0x02,
    0x30, 0x00, 0x00, 0x00, 0x34, 0x00, 0x00, 0x00, 0x00, 0x00, 0x0e, 0x00,
    0x18, 0x00, 0x17, 0x00, 0x10, 0x00, 0x0c, 0x00, 0x08, 0x00, 0x07, 0x00,
    0x0e, 0x00, 0x00, 0x00, 0x00, 0x00, 0x00, 0x01, 0x08, 0x00, 0x00, 0x00,
    0x01, 0x00, 0x00, 0x00, 0x01, 0x00, 0x00, 0x00, 0x00, 0x00, 0x00, 0x01,
    0x01, 0x00, 0x00, 0x00, 0x0e, 0x00, 0x00, 0x00, 0x03, 0x00, 0x00, 0x00,
    0x0d, 0x00, 0x00, 0x00, 0x0a, 0x00, 0x00, 0x00, 0x09, 0x00, 0x00, 0x00,
    0x00, 0x00, 0x0e, 0x00, 0x16, 0x00, 0x00, 0x00, 0x10, 0x00, 0x0c, 0x00,
    0x0b, 0x00, 0x04, 0x00, 0x0e, 0x00, 0x00, 0x00, 0x20, 0x00, 0x00, 0x00,
    0x00, 0x00, 0x00, 0x02, 0x2c, 0x00, 0x00, 0x00, 0x30, 0x00, 0x00, 0x00,
    0x00, 0x00, 0x0e, 0x00, 0x14, 0x00, 0x00, 0x00, 0x10, 0x00, 0x0c, 0x00,
    0x08, 0x00, 0x07, 0x00, 0x0e, 0x00, 0x00, 0x00, 0x00, 0x00, 0x00, 0x01,
    0x01, 0x00, 0x00, 0x00, 0x01, 0x00, 0x00, 0x00, 0x01, 0x00, 0x00, 0x00,
    0x01, 0x00, 0x00, 0x00, 0x0d, 0x00, 0x00, 0x00, 0x03, 0x00, 0x00, 0x00,
    0x00, 0x00, 0x00, 0x00, 0x0c, 0x00, 0x00, 0x00, 0x0b, 0x00, 0x00, 0x00,
    0x01, 0x00, 0x00, 0x00, 0x15, 0x00, 0x00, 0x00, 0x01, 0x00, 0x00, 0x00,
    0x00, 0x00, 0x00, 0x00, 0x16, 0x00, 0x00, 0x00, 0xcc, 0x0c, 0x00, 0x00,
    0x4c, 0x0c, 0x00, 0x00, 0xd0, 0x0b, 0x00, 0x00, 0x44, 0x0b, 0x00, 0x00,
    0xa0, 0x0a, 0x00, 0x00, 0x84, 0x09, 0x00, 0x00, 0x50, 0x08, 0x00, 0x00,
    0x84, 0x07, 0x00, 0x00, 0x88, 0x06, 0x00, 0x00, 0xcc, 0x05, 0x00, 0x00,
    0xf4, 0x04, 0x00, 0x00, 0x7c, 0x04, 0x00, 0x00, 0xec, 0x03, 0x00, 0x00,
    0x74, 0x03, 0x00, 0x00, 0x08, 0x03, 0x00, 0x00, 0x94, 0x02, 0x00, 0x00,
    0x18, 0x02, 0x00, 0x00, 0xac, 0x01, 0x00, 0x00, 0x30, 0x01, 0x00, 0x00,
    0xc4, 0x00, 0x00, 0x00, 0x60, 0x00, 0x00, 0x00, 0x04, 0x00, 0x00, 0x00,
    0xa2, 0xf3, 0xff, 0xff, 0x00, 0x00, 0x00, 0x01, 0x14, 0x00, 0x00, 0x00,
    0x30, 0x00, 0x00, 0x00, 0x16, 0x00, 0x00, 0x00, 0x00, 0x00, 0x00, 0x09,
    0x34, 0x00, 0x00, 0x00, 0x8c, 0xf3, 0xff, 0xff, 0x08, 0x00, 0x00, 0x00,
    0x10, 0x00, 0x00, 0x00, 0x01, 0x00, 0x00, 0x00, 0x80, 0xff, 0xff, 0xff,
    0xff, 0xff, 0xff, 0xff, 0x01, 0x00, 0x00, 0x00, 0x00, 0x00, 0x80, 0x3b,
    0x08, 0x00, 0x00, 0x00, 0x49, 0x64, 0x65, 0x6e, 0x74, 0x69, 0x74, 0x79,
    0x00, 0x00, 0x00, 0x00, 0x02, 0x00, 0x00, 0x00, 0x01, 0x00, 0x00, 0x00,
    0x02, 0x00, 0x00, 0x00, 0xfa, 0xf3, 0xff, 0xff, 0x00, 0x00, 0x00, 0x01,
    0x14, 0x00, 0x00, 0x00, 0x30, 0x00, 0x00, 0x00, 0x15, 0x00, 0x00, 0x00,
    0x00, 0x00, 0x00, 0x09, 0x3c, 0x00, 0x00, 0x00, 0xe4, 0xf3, 0xff, 0xff,
    0x08, 0x00, 0x00, 0x00, 0x10, 0x00, 0x00, 0x00, 0x01, 0x00, 0x00, 0x00,
    0xfd, 0xff, 0xff, 0xff, 0xff, 0xff, 0xff, 0xff, 0x01, 0x00, 0x00, 0x00,
    0xa7, 0x14, 0x3b, 0x3e, 0x13, 0x00, 0x00, 0x00, 0x6d, 0x6f, 0x64, 0x65,
    0x6c, 0x2f, 0x64, 0x65, 0x6e, 0x73, 0x65, 0x2f, 0x42, 0x69, 0x61, 0x73,
    0x41, 0x64, 0x64, 0x00, 0x02, 0x00, 0x00, 0x00, 0x01, 0x00, 0x00, 0x00,
    0x02, 0x00, 0x00, 0x00, 0x5a, 0xf4, 0xff, 0xff, 0x00, 0x00, 0x00, 0x01,
    0x14, 0x00, 0x00, 0x00, 0x30, 0x00, 0x00, 0x00, 0x14, 0x00, 0x00, 0x00,
    0x00, 0x00, 0x00, 0x09, 0x3c, 0x00, 0x00, 0x00, 0x44, 0xf4, 0xff, 0xff,
    0x08, 0x00, 0x00, 0x00, 0x10, 0x00, 0x00, 0x00, 0x01, 0x00, 0x00, 0x00,
    0x80, 0xff, 0xff, 0xff, 0xff, 0xff, 0xff, 0xff, 0x01, 0x00, 0x00, 0x00,
    0xb0, 0x1b, 0xcd, 0x3c, 0x13, 0x00, 0x00, 0x00, 0x6d, 0x6f, 0x64, 0x65,
    0x6c, 0x2f, 0x63, 0x6f, 0x6e, 0x76, 0x32, 0x64, 0x5f, 0x32, 0x2f, 0x52,
    0x65, 0x6c, 0x75, 0x00, 0x04, 0x00, 0x00, 0x00, 0x01, 0x00, 0x00, 0x00,
    0x18, 0x00, 0x00, 0x00, 0x18, 0x00, 0x00, 0x00, 0x04, 0x00, 0x00, 0x00,
    0xc2, 0xf4, 0xff, 0xff, 0x00, 0x00, 0x00, 0x01, 0x14, 0x00, 0x00, 0x00,
    0x34, 0x00, 0x00, 0x00, 0x13, 0x00, 0x00, 0x00, 0x00, 0x00, 0x00, 0x09,
    0x4c, 0x00, 0x00, 0x00, 0xac, 0xf4, 0xff, 0xff, 0x08, 0x00, 0x00, 0x00,
    0x14, 0x00, 0x00, 0x00, 0x01, 0x00, 0x00, 0x00, 0x80, 0xff, 0xff, 0xff,
    0xff, 0xff, 0xff, 0xff, 0x00, 0x00, 0x00, 0x00, 0x01, 0x00, 0x00, 0x00,
    0xfc, 0x14, 0x3b, 0x3c, 0x1d, 0x00, 0x00, 0x00, 0x6d, 0x6f, 0x64, 0x65,
    0x6c, 0x2f, 0x6d, 0x61, 0x78, 0x5f, 0x70, 0x6f, 0x6f, 0x6c, 0x69, 0x6e,
    0x67, 0x32, 0x64, 0x5f, 0x31, 0x2f, 0x4d, 0x61, 0x78, 0x50, 0x6f, 0x6f,
    0x6c, 0x00, 0x00, 0x00, 0x04, 0x00, 0x00, 0x00, 0x01, 0x00, 0x00, 0x00,
    0x18, 0x00, 0x00, 0x00, 0x18, 0x00, 0x00, 0x00, 0x10, 0x00, 0x00, 0x00,
    0x3a, 0xf5, 0xff, 0xff, 0x00, 0x00, 0x00, 0x01, 0x14, 0x00, 0x00, 0x00,
    0x30, 0x00, 0x00, 0x00, 0x12, 0x00, 0x00, 0x00, 0x00, 0x00, 0x00, 0x09,
    0x3c, 0x00, 0x00, 0x00, 0x24, 0xf5, 0xff, 0xff, 0x08, 0x00, 0x00, 0x00,
    0x10, 0x00, 0x00, 0x00, 0x01, 0x00, 0x00, 0x00, 0x80, 0xff, 0xff, 0xff,
    0xff, 0xff, 0xff, 0xff, 0x01, 0x00, 0x00, 0x00, 0xfc, 0x14, 0x3b, 0x3c,
    0x13, 0x00, 0x00, 0x00, 0x6d, 0x6f, 0x64, 0x65, 0x6c, 0x2f, 0x63, 0x6f,
    0x6e, 0x76, 0x32, 0x64, 0x5f, 0x31, 0x2f, 0x52, 0x65, 0x6c, 0x75, 0x00,
    0x04, 0x00, 0x00, 0x00, 0x01, 0x00, 0x00, 0x00, 0x30, 0x00, 0x00, 0x00,
    0x30, 0x00, 0x00, 0x00, 0x10, 0x00, 0x00, 0x00, 0xa2, 0xf5, 0xff, 0xff,
    0x00, 0x00, 0x00, 0x01, 0x14, 0x00, 0x00, 0x00, 0x34, 0x00, 0x00, 0x00,
    0x11, 0x00, 0x00, 0x00, 0x00, 0x00, 0x00, 0x09, 0x4c, 0x00, 0x00, 0x00,
    0x8c, 0xf5, 0xff, 0xff, 0x08, 0x00, 0x00, 0x00, 0x14, 0x00, 0x00, 0x00,
    0x01, 0x00, 0x00, 0x00, 0x80, 0xff, 0xff, 0xff, 0xff, 0xff, 0xff, 0xff,
    0x00, 0x00, 0x00, 0x00, 0x01, 0x00, 0x00, 0x00, 0xa1, 0xde, 0xe9, 0x3b,
    0x1d, 0x00, 0x00, 0x00, 0x6d, 0x6f, 0x64, 0x65, 0x6c, 0x2f, 0x64, 0x65,
    0x70, 0x74, 0x68, 0x77, 0x69, 0x73, 0x65, 0x5f, 0x63, 0x6f, 0x6e, 0x76,
    0x32, 0x64, 0x5f, 0x31, 0x2f, 0x52, 0x65, 0x6c, 0x75, 0x00, 0x00, 0x00,
    0x04, 0x00, 0x00, 0x00, 0x01, 0x00, 0x00, 0x00, 0x30, 0x00, 0x00, 0x00,
    0x30, 0x00, 0x00, 0x00, 0x08, 0x00, 0x00, 0x00, 0x1a, 0xf6, 0xff, 0xff,
    0x00, 0x00, 0x00, 0x01, 0x14, 0x00, 0x00, 0x00, 0x30, 0x00, 0x00, 0x00,
    0x10, 0x00, 0x00, 0x00, 0x00, 0x00, 0x00, 0x09, 0x44, 0x00, 0x00, 0x00,
    0x04, 0xf6, 0xff, 0xff, 0x08, 0x00, 0x00, 0x00, 0x10, 0x00, 0x00, 0x00,
    0x01, 0x00, 0x00, 0x00, 0x80, 0xff, 0xff, 0xff, 0xff, 0xff, 0xff, 0xff,
    0x01, 0x00, 0x00, 0x00, 0xd0, 0x00, 0x73, 0x3c, 0x1b, 0x00, 0x00, 0x00,
    0x6d, 0x6f, 0x64, 0x65, 0x6c, 0x2f, 0x6d, 0x61, 0x78, 0x5f, 0x70, 0x6f,
    0x6f, 0x6c, 0x69, 0x6e, 0x67, 0x32, 0x64, 0x2f, 0x4d, 0x61, 0x78, 0x50,
    0x6f, 0x6f, 0x6c, 0x00, 0x04, 0x00, 0x00, 0x00, 0x01, 0x00, 0x00, 0x00,
    0x30, 0x00, 0x00, 0x00, 0x30, 0x00, 0x00, 0x00, 0x08, 0x00, 0x00, 0x00,
    0x8a, 0xf6, 0xff, 0xff, 0x00, 0x00, 0x00, 0x01, 0x14, 0x00, 0x00, 0x00,
    0x30, 0x00, 0x00, 0x00, 0x0f, 0x00, 0x00, 0x00, 0x00, 0x00, 0x00, 0x09,
    0x3c, 0x00, 0x00, 0x00, 0x74, 0xf6, 0xff, 0xff, 0x08, 0x00, 0x00, 0x00,
    0x10, 0x00, 0x00, 0x00, 0x01, 0x00, 0x00, 0x00, 0x80, 0xff, 0xff, 0xff,
    0xff, 0xff, 0xff, 0xff, 0x01, 0x00, 0x00, 0x00, 0xd0, 0x00, 0x73, 0x3c,
    0x11, 0x00, 0x00, 0x00, 0x6d, 0x6f, 0x64, 0x65, 0x6c, 0x2f, 0x63, 0x6f,
    0x6e, 0x76, 0x32, 0x64, 0x2f, 0x52, 0x65, 0x6c, 0x75, 0x00, 0x00, 0x00,
    0x04, 0x00, 0x00, 0x00, 0x01, 0x00, 0x00, 0x00, 0x60, 0x00, 0x00, 0x00,
    0x60, 0x00, 0x00, 0x00, 0x08, 0x00, 0x00, 0x00, 0xf2, 0xf6, 0xff, 0xff,
    0x00, 0x00, 0x00, 0x01, 0x14, 0x00, 0x00, 0x00, 0x34, 0x00, 0x00, 0x00,
    0x0e, 0x00, 0x00, 0x00, 0x00, 0x00, 0x00, 0x09, 0x48, 0x00, 0x00, 0x00,
    0xdc, 0xf6, 0xff, 0xff, 0x08, 0x00, 0x00, 0x00, 0x14, 0x00, 0x00, 0x00,
    0x01, 0x00, 0x00, 0x00, 0x80, 0xff, 0xff, 0xff, 0xff, 0xff, 0xff, 0xff,
    0x00, 0x00, 0x00, 0x00, 0x01, 0x00, 0x00, 0x00, 0xc6, 0x4c, 0x9c, 0x3c,
    0x1b, 0x00, 0x00, 0x00, 0x6d, 0x6f, 0x64, 0x65, 0x6c, 0x2f, 0x64, 0x65,
    0x70, 0x74, 0x68, 0x77, 0x69, 0x73, 0x65, 0x5f, 0x63, 0x6f, 0x6e, 0x76,
    0x32, 0x64, 0x2f, 0x52, 0x65, 0x6c, 0x75, 0x00, 0x04, 0x00, 0x00, 0x00,
    0x01, 0x00, 0x00, 0x00, 0x60, 0x00, 0x00, 0x00, 0x60, 0x00, 0x00, 0x00,
    0x01, 0x00, 0x00, 0x00, 0x66, 0xf7, 0xff, 0xff, 0x00, 0x00, 0x00, 0x01,
    0x14, 0x00, 0x00, 0x00, 0x38, 0x00, 0x00, 0x00, 0x0d, 0x00, 0x00, 0x00,
    0x00, 0x00, 0x00, 0x09, 0x60, 0x00, 0x00, 0x00, 0x72, 0xfd, 0xff, 0xff,
    0x03, 0x00, 0x00, 0x00, 0x08, 0x00, 0x00, 0x00, 0x14, 0x00, 0x00, 0x00,
    0x01, 0x00, 0x00, 0x00, 0x00, 0x00, 0x00, 0x00, 0x00, 0x00, 0x00, 0x00,
    0x00, 0x00, 0x00, 0x00, 0x01, 0x00, 0x00, 0x00, 0x29, 0x68, 0xe0, 0x3b,
    0x2f, 0x00, 0x00, 0x00, 0x6d, 0x6f, 0x64, 0x65, 0x6c, 0x2f, 0x64, 0x65,
    0x70, 0x74, 0x68, 0x77, 0x69, 0x73, 0x65, 0x5f, 0x63, 0x6f, 0x6e, 0x76,
    0x32, 0x64, 0x2f, 0x64, 0x65, 0x70, 0x74, 0x68, 0x77, 0x69, 0x73, 0x65,
    0x2f, 0x52, 0x65, 0x61, 0x64, 0x56, 0x61, 0x72, 0x69, 0x61, 0x62, 0x6c,
    0x65, 0x4f, 0x70, 0x00, 0x04, 0x00, 0x00, 0x00, 0x01, 0x00, 0x00, 0x00,
    0x03, 0x00, 0x00, 0x00, 0x03, 0x00, 0x00, 0x00, 0x01, 0x00, 0x00, 0x00,
    0xf2, 0xf7, 0xff, 0xff, 0x00, 0x00, 0x00, 0x01, 0x14, 0x00, 0x00, 0x00,
    0x34, 0x00, 0x00, 0x00, 0x0c, 0x00, 0x00, 0x00, 0x00, 0x00, 0x00, 0x02,
    0x54, 0x00, 0x00, 0x00, 0xdc, 0xf7, 0xff, 0xff, 0x08, 0x00, 0x00, 0x00,
    0x14, 0x00, 0x00, 0x00, 0x01, 0x00, 0x00, 0x00, 0x00, 0x00, 0x00, 0x00,
    0x00, 0x00, 0x00, 0x00, 0x00, 0x00, 0x00, 0x00, 0x01, 0x00, 0x00, 0x00,
    0x73, 0x49, 0xe1, 0x37, 0x25, 0x00, 0x00, 0x00, 0x6d, 0x6f, 0x64, 0x65,
    0x6c, 0x2f, 0x64, 0x65, 0x70, 0x74, 0x68, 0x77, 0x69, 0x73, 0x65, 0x5f,
    0x63, 0x6f, 0x6e, 0x76, 0x32, 0x64, 0x2f, 0x64, 0x65, 0x70, 0x74, 0x68,
    0x77, 0x69, 0x73, 0x65, 0x5f, 0x62, 0x69, 0x61, 0x73, 0x00, 0x00, 0x00,
    0x01, 0x00, 0x00, 0x00, 0x01, 0x00, 0x00, 0x00, 0x66, 0xf8, 0xff, 0xff,
    0x00, 0x00, 0x00, 0x01, 0x14, 0x00, 0x00, 0x00, 0x8c, 0x00, 0x00, 0x00,
    0x0b, 0x00, 0x00, 0x00, 0x00, 0x00, 0x00, 0x09, 0xa8, 0x00, 0x00, 0x00,
    0x72, 0xfe, 0xff, 0xff, 0x03, 0x00, 0x00, 0x00, 0x08, 0x00, 0x00, 0x00,
    0x4c, 0x00, 0x00, 0x00, 0x08, 0x00, 0x00, 0x00, 0x00, 0x00, 0x00, 0x00,
    0x00, 0x00, 0x00, 0x00, 0x00, 0x00, 0x00, 0x00, 0x00, 0x00, 0x00, 0x00,
    0x00, 0x00, 0x00, 0x00, 0x00, 0x00, 0x00, 0x00, 0x00, 0x00, 0x00, 0x00,
    0x00, 0x00, 0x00, 0x00, 0x00, 0x00, 0x00, 0x00, 0x00, 0x00, 0x00, 0x00,
    0x00, 0x00, 0x00, 0x00, 0x00, 0x00, 0x00, 0x00, 0x00, 0x00, 0x00, 0x00,
    0x00, 0x00, 0x00, 0x00, 0x00, 0x00, 0x00, 0x00, 0x00, 0x00, 0x00, 0x00,
    0x00, 0x00, 0x00, 0x00, 0x08, 0x00, 0x00, 0x00, 0x53, 0xf0, 0x61, 0x3b,
    0x2b, 0x1d, 0x92, 0x3b, 0x20, 0x37, 0x61, 0x3b, 0x6b, 0xa9, 0x99, 0x3b,
    0xd7, 0x78, 0x71, 0x3b, 0x4b, 0xf1, 0xe1, 0x3a, 0x39, 0x92, 0xc7, 0x3b,
    0xc2, 0x0c, 0xc1, 0x3a, 0x22, 0x00, 0x00, 0x00, 0x6d, 0x6f, 0x64, 0x65,
    0x6c, 0x2f, 0x63, 0x6f, 0x6e, 0x76, 0x32, 0x64, 0x2f, 0x43, 0x6f, 0x6e,
    0x76, 0x32, 0x44, 0x2f, 0x52, 0x65, 0x61, 0x64, 0x56, 0x61, 0x72, 0x69,
    0x61, 0x62, 0x6c, 0x65, 0x4f, 0x70, 0x00, 0x00, 0x04, 0x00, 0x00, 0x00,
    0x01, 0x00, 0x00, 0x00, 0x01, 0x00, 0x00, 0x00, 0x01, 0x00, 0x00, 0x00,
    0x08, 0x00, 0x00, 0x00, 0x3a, 0xf9, 0xff, 0xff, 0x00, 0x00, 0x00, 0x01,
    0x14, 0x00, 0x00, 0x00, 0x84, 0x00, 0x00, 0x00, 0x0a, 0x00, 0x00, 0x00,
    0x00, 0x00, 0x00, 0x02, 0x98, 0x00, 0x00, 0x00, 0x24, 0xf9, 0xff, 0xff,
    0x08, 0x00, 0x00, 0x00, 0x48, 0x00, 0x00, 0x00, 0x08, 0x00, 0x00, 0x00,
    0x00, 0x00, 0x00, 0x00, 0x00, 0x00, 0x00, 0x00, 0x00, 0x00, 0x00, 0x00,
    0x00, 0x00, 0x00, 0x00, 0x00, 0x00, 0x00, 0x00, 0x00, 0x00, 0x00, 0x00,
    0x00, 0x00, 0x00, 0x00, 0x00, 0x00, 0x00, 0x00, 0x00, 0x00, 0x00, 0x00,
    0x00, 0x00, 0x00, 0x00, 0x00, 0x00, 0x00, 0x00, 0x00, 0x00, 0x00, 0x00,
    0x00, 0x00, 0x00, 0x00, 0x00, 0x00, 0x00, 0x00, 0x00, 0x00, 0x00, 0x00,
    0x00, 0x00, 0x00, 0x00, 0x08, 0x00, 0x00, 0x00, 0x35, 0xf2, 0x89, 0x38,
    0x30, 0x6b, 0xb2, 0x38, 0x22, 0x81, 0x89, 0x38, 0xa5, 0xa2, 0xbb, 0x38,
    0x0e, 0x6e, 0x93, 0x38, 0xcc, 0xf2, 0x09, 0x38, 0xe9, 0xb1, 0xf3, 0x38,
    0x57, 0xbb, 0xeb, 0x37, 0x18, 0x00, 0x00, 0x00, 0x6d, 0x6f, 0x64, 0x65,
    0x6c, 0x2f, 0x63, 0x6f, 0x6e, 0x76, 0x32, 0x64, 0x2f, 0x43, 0x6f, 0x6e,
    0x76, 0x32, 0x44, 0x5f, 0x62, 0x69, 0x61, 0x73, 0x00, 0x00, 0x00, 0x00,
    0x01, 0x00, 0x00, 0x00, 0x08, 0x00, 0x00, 0x00, 0xf2, 0xf9, 0xff, 0xff,
    0x00, 0x00, 0x00, 0x01, 0x28, 0x00, 0x00, 0x00, 0xa0, 0x00, 0x00, 0x00,
    0x09, 0x00, 0x00, 0x00, 0x00, 0x00, 0x00, 0x09, 0xcc, 0x00, 0x00, 0x00,
    0x00, 0x00, 0x12, 0x00, 0x10, 0x00, 0x00, 0x00, 0x00, 0x00, 0x0c, 0x00,
    0x08, 0x00, 0x00, 0x00, 0x00, 0x00, 0x04, 0x00, 0x12, 0x00, 0x00, 0x00,
    0x03, 0x00, 0x00, 0x00, 0x08, 0x00, 0x00, 0x00, 0x4c, 0x00, 0x00, 0x00,
    0x08, 0x00, 0x00, 0x00, 0x00, 0x00, 0x00, 0x00, 0x00, 0x00, 0x00, 0x00,
    0x00, 0x00, 0x00, 0x00, 0x00, 0x00, 0x00, 0x00, 0x00, 0x00, 0x00, 0x00,
    0x00, 0x00, 0x00, 0x00, 0x00, 0x00, 0x00, 0x00, 0x00, 0x00, 0x00, 0x00,
    0x00, 0x00, 0x00, 0x00, 0x00, 0x00, 0x00, 0x00, 0x00, 0x00, 0x00, 0x00,
    0x00, 0x00, 0x00, 0x00, 0x00, 0x00, 0x00, 0x00, 0x00, 0x00, 0x00, 0x00,
    0x00, 0x00, 0x00, 0x00, 0x00, 0x00, 0x00, 0x00, 0x00, 0x00, 0x00, 0x00,
    0x08, 0x00, 0x00, 0x00, 0x3d, 0x62, 0x54, 0x3b, 0xd4, 0xa1, 0x3b, 0x3b,
    0x47, 0x31, 0xf5, 0x3a, 0xca, 0x4e, 0xdc, 0x3a, 0x9e, 0xa8, 0x31, 0x3b,
    0xa9, 0x79, 0x04, 0x3b, 0x04, 0xb0, 0x0e, 0x3b, 0x93, 0xbf, 0x08, 0x3b,
    0x31, 0x00, 0x00, 0x00, 0x6d, 0x6f, 0x64, 0x65, 0x6c, 0x2f, 0x64, 0x65,
    0x70, 0x74, 0x68, 0x77, 0x69, 0x73, 0x65, 0x5f, 0x63, 0x6f, 0x6e, 0x76,
    0x32, 0x64, 0x5f, 0x31, 0x2f, 0x64, 0x65, 0x70, 0x74, 0x68, 0x77, 0x69,
    0x73, 0x65, 0x2f, 0x52, 0x65, 0x61, 0x64, 0x56, 0x61, 0x72, 0x69, 0x61,
    0x62, 0x6c, 0x65, 0x4f, 0x70, 0x00, 0x00, 0x00, 0x04, 0x00, 0x00, 0x00,
    0x01, 0x00, 0x00, 0x00, 0x03, 0x00, 0x00, 0x00, 0x03, 0x00, 0x00, 0x00,
    0x08, 0x00, 0x00, 0x00, 0xea, 0xfa, 0xff, 0xff, 0x00, 0x00, 0x00, 0x01,
    0x14, 0x00, 0x00, 0x00, 0x88, 0x00, 0x00, 0x00, 0x08, 0x00, 0x00, 0x00,
    0x00, 0x00, 0x00, 0x02, 0xa8, 0x00, 0x00, 0x00, 0xd4, 0xfa, 0xff, 0xff,
    0x08, 0x00, 0x00, 0x00, 0x4c, 0x00, 0x00, 0x00, 0x08, 0x00, 0x00, 0x00,
    0x00, 0x00, 0x00, 0x00, 0x00, 0x00, 0x00, 0x00, 0x00, 0x00, 0x00, 0x00,
    0x00, 0x00, 0x00, 0x00, 0x00, 0x00, 0x00, 0x00, 0x00, 0x00, 0x00, 0x00,
    0x00, 0x00, 0x00, 0x00, 0x00, 0x00, 0x00, 0x00, 0x00, 0x00, 0x00, 0x00,
    0x00, 0x00, 0x00, 0x00, 0x00, 0x00, 0x00, 0x00, 0x00, 0x00, 0x00, 0x00,
    0x00, 0x00, 0x00, 0x00, 0x00, 0x00, 0x00, 0x00, 0x00, 0x00, 0x00, 0x00,
    0x00, 0x00, 0x00, 0x00, 0x00, 0x00, 0x00, 0x00, 0x08, 0x00, 0x00, 0x00,
    0xec, 0x99, 0x49, 0x38, 0x35, 0x1b, 0x32, 0x38, 0x8e, 0xbe, 0xe8, 0x37,
    0x7d, 0x1f, 0xd1, 0x37, 0x9e, 0xa3, 0x28, 0x38, 0xce, 0x7f, 0xfb, 0x37,
    0x88, 0x71, 0x07, 0x38, 0x48, 0xce, 0x01, 0x38, 0x27, 0x00, 0x00, 0x00,
    0x6d, 0x6f, 0x64, 0x65, 0x6c, 0x2f, 0x64, 0x65, 0x70, 0x74, 0x68, 0x77,
    0x69, 0x73, 0x65, 0x5f, 0x63, 0x6f, 0x6e, 0x76, 0x32, 0x64, 0x5f, 0x31,
    0x2f, 0x64, 0x65, 0x70, 0x74, 0x68, 0x77, 0x69, 0x73, 0x65, 0x5f, 0x62,
    0x69, 0x61, 0x73, 0x00, 0x01, 0x00, 0x00, 0x00, 0x08, 0x00, 0x00, 0x00,
    0xb2, 0xfb, 0xff, 0xff, 0x00, 0x00, 0x00, 0x01, 0x14, 0x00, 0x00, 0x00,
    0xe4, 0x00, 0x00, 0x00, 0x07, 0x00, 0x00, 0x00, 0x00, 0x00, 0x00, 0x09,
    0x04, 0x01, 0x00, 0x00, 0x9c, 0xfb, 0xff, 0xff, 0x08, 0x00, 0x00, 0x00,
    0x88, 0x00, 0x00, 0x00, 0x10, 0x00, 0x00, 0x00, 0x00, 0x00, 0x00, 0x00,
    0x00, 0x00, 0x00, 0x00, 0x00, 0x00, 0x00, 0x00, 0x00, 0x00, 0x00, 0x00,
    0x00, 0x00, 0x00, 0x00, 0x00, 0x00, 0x00, 0x00, 0x00, 0x00, 0x00, 0x00,
    0x00, 0x00, 0x00, 0x00, 0x00, 0x00, 0x00, 0x00, 0x00, 0x00, 0x00, 0x00,
    0x00, 0x00, 0x00, 0x00, 0x00, 0x00, 0x00, 0x00, 0x00, 0x00, 0x00, 0x00,
    0x00, 0x00, 0x00, 0x00, 0x00, 0x00, 0x00, 0x00, 0x00, 0x00, 0x00, 0x00,
    0x00, 0x00, 0x00, 0x00, 0x00, 0x00, 0x00, 0x00, 0x00, 0x00, 0x00, 0x00,
    0x00, 0x00, 0x00, 0x00, 0x00, 0x00, 0x00, 0x00, 0x00, 0x00, 0x00, 0x00,
    0x00, 0x00, 0x00, 0x00, 0x00, 0x00, 0x00, 0x00, 0x00, 0x00, 0x00, 0x00,
    0x00, 0x00, 0x00, 0x00, 0x00, 0x00, 0x00, 0x00, 0x00, 0x00, 0x00, 0x00,
    0x00, 0x00, 0x00, 0x00, 0x00, 0x00, 0x00, 0x00, 0x00, 0x00, 0x00, 0x00,
    0x00, 0x00, 0x00, 0x00, 0x10, 0x00, 0x00, 0x00, 0x78, 0xae, 0xfe, 0x3b,
    0x12, 0xa7, 0x7d, 0x3b, 0xb1, 0xfa, 0x7e, 0x3b, 0xb5, 0x55, 0x28, 0x3b,
    0x63, 0x67, 0xbf, 0x3b, 0x3b, 0x3b, 0x9d, 0x3b, 0x11, 0x07, 0xc8, 0x3b,
    0x93, 0xb9, 0x67, 0x3b, 0x61, 0xb1, 0x91, 0x3b, 0x23, 0x08, 0x85, 0x3b,
    0x1e, 0xb9, 0x79, 0x3b, 0x67, 0x61, 0x54, 0x3b, 0x14, 0x98, 0x27, 0x3b,
    0x87, 0xb9, 0xd8, 0x3b, 0xd0, 0x51, 0xe9, 0x3b, 0x7e, 0x12, 0xc8, 0x3b,
    0x24, 0x00, 0x00, 0x00, 0x6d, 0x6f, 0x64, 0x65, 0x6c, 0x2f, 0x63, 0x6f,
    0x6e, 0x76, 0x32, 0x64, 0x5f, 0x31, 0x2f, 0x43, 0x6f, 0x6e, 0x76, 0x32,
    0x44, 0x2f, 0x52, 0x65, 0x61, 0x64, 0x56, 0x61, 0x72, 0x69, 0x61, 0x62,
    0x6c, 0x65, 0x4f, 0x70, 0x00, 0x00, 0x00, 0x00, 0x04, 0x00, 0x00, 0x00,
    0x10, 0x00, 0x00, 0x00, 0x01, 0x00, 0x00, 0x00, 0x01, 0x00, 0x00, 0x00,
    0x08, 0x00, 0x00, 0x00, 0xe2, 0xfc, 0xff, 0xff, 0x00, 0x00, 0x00, 0x01,
    0x14, 0x00, 0x00, 0x00, 0xe4, 0x00, 0x00, 0x00, 0x06, 0x00, 0x00, 0x00,
    0x00, 0x00, 0x00, 0x02, 0xf8, 0x00, 0x00, 0x00, 0xcc, 0xfc, 0xff, 0xff,
    0x08, 0x00, 0x00, 0x00, 0x88, 0x00, 0x00, 0x00, 0x10, 0x00, 0x00, 0x00,
    0x00, 0x00, 0x00, 0x00, 0x00, 0x00, 0x00, 0x00, 0x00, 0x00, 0x00, 0x00,
    0x00, 0x00, 0x00, 0x00, 0x00, 0x00, 0x00, 0x00, 0x00, 0x00, 0x00, 0x00,
    0x00, 0x00, 0x00, 0x00, 0x00, 0x00, 0x00, 0x00, 0x00, 0x00, 0x00, 0x00,
    0x00, 0x00, 0x00, 0x00, 0x00, 0x00, 0x00, 0x00, 0x00, 0x00, 0x00, 0x00,
    0x00, 0x00, 0x00, 0x00, 0x00, 0x00, 0x00, 0x00, 0x00, 0x00, 0x00, 0x00,
    0x00, 0x00, 0x00, 0x00, 0x00, 0x00, 0x00, 0x00, 0x00, 0x00, 0x00, 0x00,
    0x00, 0x00, 0x00, 0x00, 0x00, 0x00, 0x00, 0x00, 0x00, 0x00, 0x00, 0x00,
    0x00, 0x00, 0x00, 0x00, 0x00, 0x00, 0x00, 0x00, 0x00, 0x00, 0x00, 0x00,
    0x00, 0x00, 0x00, 0x00, 0x00, 0x00, 0x00, 0x00, 0x00, 0x00, 0x00, 0x00,
    0x00, 0x00, 0x00, 0x00, 0x00, 0x00, 0x00, 0x00, 0x00, 0x00, 0x00, 0x00,
    0x00, 0x00, 0x00, 0x00, 0x00, 0x00, 0x00, 0x00, 0x10, 0x00, 0x00, 0x00,
    0x47, 0xaa, 0x68, 0x38, 0xa6, 0xb9, 0xe7, 0x37, 0xe9, 0xef, 0xe8, 0x37,
    0x66, 0xc8, 0x99, 0x37, 0x8d, 0xdb, 0x2e, 0x38, 0xa5, 0xa3, 0x0f, 0x38,
    0x62, 0xbc, 0x36, 0x38, 0x6b, 0xb1, 0xd3, 0x37, 0x25, 0x19, 0x05, 0x38,
    0x31, 0x10, 0xf3, 0x37, 0xa8, 0x22, 0xe4, 0x37, 0x59, 0x05, 0xc2, 0x37,
    0x29, 0x1b, 0x99, 0x37, 0x55, 0xfd, 0x45, 0x38, 0x5e, 0x26, 0x55, 0x38,
    0xd3, 0xc6, 0x36, 0x38, 0x1a, 0x00, 0x00, 0x00, 0x6d, 0x6f, 0x64, 0x65,
    0x6c, 0x2f, 0x63, 0x6f, 0x6e, 0x76, 0x32, 0x64, 0x5f, 0x31, 0x2f, 0x43,
    0x6f, 0x6e, 0x76, 0x32, 0x44, 0x5f, 0x62, 0x69, 0x61, 0x73, 0x00, 0x00,
    0x01, 0x00, 0x00, 0x00, 0x10, 0x00, 0x00, 0x00, 0xfa, 0xfd, 0xff, 0xff,
    0x00, 0x00, 0x00, 0x01, 0x14, 0x00, 0x00, 0x00, 0x54, 0x00, 0x00, 0x00,
    0x05, 0x00, 0x00, 0x00, 0x00, 0x00, 0x00, 0x09, 0x74, 0x00, 0x00, 0x00,
    0xe4, 0xfd, 0xff, 0xff, 0x08, 0x00, 0x00, 0x00, 0x28, 0x00, 0x00, 0x00,
    0x04, 0x00, 0x00, 0x00, 0x00, 0x00, 0x00, 0x00, 0x00, 0x00, 0x00, 0x00,
    0x00, 0x00, 0x00, 0x00, 0x00, 0x00, 0x00, 0x00, 0x00, 0x00, 0x00, 0x00,
    0x00, 0x00, 0x00, 0x00, 0x00, 0x00, 0x00, 0x00, 0x00, 0x00, 0x00, 0x00,
    0x04, 0x00, 0x00, 0x00, 0x2d, 0xd9, 0xcd, 0x3b, 0x03, 0xd5, 0xbc, 0x3b,
    0x6e, 0x01, 0xda, 0x3b, 0xe0, 0x78, 0xbe, 0x3b, 0x24, 0x00, 0x00, 0x00,
    0x6d, 0x6f, 0x64, 0x65, 0x6c, 0x2f, 0x63, 0x6f, 0x6e, 0x76, 0x32, 0x64,
    0x5f, 0x32, 0x2f, 0x43, 0x6f, 0x6e, 0x76, 0x32, 0x44, 0x2f, 0x52, 0x65,
    0x61, 0x64, 0x56, 0x61, 0x72, 0x69, 0x61, 0x62, 0x6c, 0x65, 0x4f, 0x70,
    0x00, 0x00, 0x00, 0x00, 0x04, 0x00, 0x00, 0x00, 0x04, 0x00, 0x00, 0x00,
    0x01, 0x00, 0x00, 0x00, 0x01, 0x00, 0x00, 0x00, 0x10, 0x00, 0x00, 0x00,
    0x9a, 0xfe, 0xff, 0xff, 0x00, 0x00, 0x00, 0x01, 0x14, 0x00, 0x00, 0x00,
    0x54, 0x00, 0x00, 0x00, 0x04, 0x00, 0x00, 0x00, 0x00, 0x00, 0x00, 0x02,
    0x68, 0x00, 0x00, 0x00, 0x84, 0xfe, 0xff, 0xff, 0x08, 0x00, 0x00, 0x00,
    0x28, 0x00, 0x00, 0x00, 0x04, 0x00, 0x00, 0x00, 0x00, 0x00, 0x00, 0x00,
    0x00, 0x00, 0x00, 0x00, 0x00, 0x00, 0x00, 0x00, 0x00, 0x00, 0x00, 0x00,
    0x00, 0x00, 0x00, 0x00, 0x00, 0x00, 0x00, 0x00, 0x00, 0x00, 0x00, 0x00,
    0x00, 0x00, 0x00, 0x00, 0x04, 0x00, 0x00, 0x00, 0x83, 0x6e, 0x96, 0x38,
    0x14, 0xff, 0x89, 0x38, 0xea, 0x50, 0x9f, 0x38, 0xe9, 0x31, 0x8b, 0x38,
    0x1a, 0x00, 0x00, 0x00, 0x6d, 0x6f, 0x64, 0x65, 0x6c, 0x2f, 0x63, 0x6f,
    0x6e, 0x76, 0x32, 0x64, 0x5f, 0x32, 0x2f, 0x43, 0x6f, 0x6e, 0x76, 0x32,
    0x44, 0x5f, 0x62, 0x69, 0x61, 0x73, 0x00, 0x00, 0x01, 0x00, 0x00, 0x00,
    0x04, 0x00, 0x00, 0x00, 0x22, 0xff, 0xff, 0xff, 0x00, 0x00, 0x00, 0x01,
    0x14, 0x00, 0x00, 0x00, 0x30, 0x00, 0x00, 0x00, 0x03, 0x00, 0x00, 0x00,
    0x00, 0x00, 0x00, 0x09, 0x54, 0x00, 0x00, 0x00, 0x0c, 0xff, 0xff, 0xff,
    0x08, 0x00, 0x00, 0x00, 0x10, 0x00, 0x00, 0x00, 0x01, 0x00, 0x00, 0x00,
    0x00, 0x00, 0x00, 0x00, 0x00, 0x00, 0x00, 0x00, 0x01, 0x00, 0x00, 0x00,
    0x96, 0x37, 0x2f, 0x3b, 0x2b, 0x00, 0x00, 0x00, 0x6d, 0x6f, 0x64, 0x65,
    0x6c, 0x2f, 0x64, 0x65, 0x6e, 0x73, 0x65, 0x2f, 0x4d, 0x61, 0x74, 0x4d,
    0x75, 0x6c, 0x2f, 0x52, 0x65, 0x61, 0x64, 0x56, 0x61, 0x72, 0x69, 0x61,
    0x62, 0x6c, 0x65, 0x4f, 0x70, 0x2f, 0x74, 0x72, 0x61, 0x6e, 0x73, 0x70,
    0x6f, 0x73, 0x65, 0x00, 0x02, 0x00, 0x00, 0x00, 0x02, 0x00, 0x00, 0x00,
    0x00, 0x09, 0x00, 0x00, 0x9a, 0xff, 0xff, 0xff, 0x00, 0x00, 0x00, 0x01,
    0x14, 0x00, 0x00, 0x00, 0x34, 0x00, 0x00, 0x00, 0x02, 0x00, 0x00, 0x00,
    0x00, 0x00, 0x00, 0x02, 0x44, 0x00, 0x00, 0x00, 0x84, 0xff, 0xff, 0xff,
    0x08, 0x00, 0x00, 0x00, 0x14, 0x00, 0x00, 0x00, 0x01, 0x00, 0x00, 0x00,
    0x00, 0x00, 0x00, 0x00, 0x00, 0x00, 0x00, 0x00, 0x00, 0x00, 0x00, 0x00,
    0x01, 0x00, 0x00, 0x00, 0x76, 0x62, 0x8c, 0x38, 0x17, 0x00, 0x00, 0x00,
    0x6d, 0x6f, 0x64, 0x65, 0x6c, 0x2f, 0x64, 0x65, 0x6e, 0x73, 0x65, 0x2f,
    0x4d, 0x61, 0x74, 0x4d, 0x75, 0x6c, 0x5f, 0x62, 0x69, 0x61, 0x73, 0x00,
    0x01, 0x00, 0x00, 0x00, 0x02, 0x00, 0x00, 0x00, 0x00, 0x00, 0x16, 0x00,
    0x1c, 0x00, 0x18, 0x00, 0x17, 0x00, 0x10, 0x00, 0x0c, 0x00, 0x08, 0x00,
    0x00, 0x00, 0x00, 0x00, 0x00, 0x00, 0x07, 0x00, 0x16, 0x00, 0x00, 0x00,
    0x00, 0x00, 0x00, 0x01, 0x20, 0x00, 0x00, 0x00, 0x40, 0x00, 0x00, 0x00,
    0x01, 0x00, 0x00, 0x00, 0x00, 0x00, 0x00, 0x09, 0x40, 0x00, 0x00, 0x00,
    0x0c, 0x00, 0x0c, 0x00, 0x00, 0x00, 0x00, 0x00, 0x08, 0x00, 0x04, 0x00,
    0x0c, 0x00, 0x00, 0x00, 0x08, 0x00, 0x00, 0x00, 0x14, 0x00, 0x00, 0x00,
    0x01, 0x00, 0x00, 0x00, 0x80, 0xff, 0xff, 0xff, 0xff, 0xff, 0xff, 0xff,
    0x00, 0x00, 0x00, 0x00, 0x01, 0x00, 0x00, 0x00, 0x81, 0x80, 0x80, 0x3b,
    0x07, 0x00, 0x00, 0x00, 0x69, 0x6e, 0x70, 0x75, 0x74, 0x5f, 0x31, 0x00,
    0x04, 0x00, 0x00, 0x00, 0x01, 0x00, 0x00, 0x00, 0x60, 0x00, 0x00, 0x00,
    0x60, 0x00, 0x00, 0x00, 0x01, 0x00, 0x00, 0x00, 0x05, 0x00, 0x00, 0x00,
    0x60, 0x00, 0x00, 0x00, 0x40, 0x00, 0x00, 0x00, 0x2c, 0x00, 0x00, 0x00,
    0x18, 0x00, 0x00, 0x00, 0x04, 0x00, 0x00, 0x00, 0xc0, 0xff, 0xff, 0xff,
    0x19, 0x00, 0x00, 0x00, 0x02, 0x00, 0x00, 0x00, 0x00, 0x00, 0x00, 0x19,
    0xd0, 0xff, 0xff, 0xff, 0x09, 0x00, 0x00, 0x00, 0x04, 0x00, 0x00, 0x00,
    0x00, 0x00, 0x00, 0x09, 0xe0, 0xff, 0xff, 0xff, 0x03, 0x00, 0x00, 0x00,
    0x03, 0x00, 0x00, 0x00, 0x00, 0x00, 0x00, 0x03, 0xf0, 0xff, 0xff, 0xff,
    0x11, 0x00, 0x00, 0x00, 0x02, 0x00, 0x00, 0x00, 0x00, 0x00, 0x00, 0x11,
    0x0c, 0x00, 0x10, 0x00, 0x0f, 0x00, 0x00, 0x00, 0x08, 0x00, 0x04, 0x00,
    0x0c, 0x00, 0x00, 0x00, 0x04, 0x00, 0x00, 0x00, 0x03, 0x00, 0x00, 0x00,
    0x00, 0x00, 0x00, 0x04};
unsigned int model_tflite_len = 9928;
